#include "model.h"

alignas(16) const char g_model[] = {
  0x1c, 0x00, 0x00, 0x00, 0x54, 0x46, 0x4c, 0x33, 0x14, 0x00, 0x20, 0x00,
  0x1c, 0x00, 0x18, 0x00, 0x14, 0x00, 0x10, 0x00, 0x0c, 0x00, 0x00, 0x00,
  0x08, 0x00, 0x04, 0x00, 0x14, 0x00, 0x00, 0x00, 0x1c, 0x00, 0x00, 0x00,
  0x80, 0x00, 0x00, 0x00, 0xd8, 0x00, 0x00, 0x00, 0x30, 0x17, 0x00, 0x00,
  0x40, 0x17, 0x00, 0x00, 0x04, 0x25, 0x00, 0x00, 0x03, 0x00, 0x00, 0x00,
  0x01, 0x00, 0x00, 0x00, 0x04, 0x00, 0x00, 0x00, 0x7e, 0xe8, 0xff, 0xff,
  0x0c, 0x00, 0x00, 0x00, 0x1c, 0x00, 0x00, 0x00, 0x3c, 0x00, 0x00, 0x00,
  0x0f, 0x00, 0x00, 0x00, 0x73, 0x65, 0x72, 0x76, 0x69, 0x6e, 0x67, 0x5f,
  0x64, 0x65, 0x66, 0x61, 0x75, 0x6c, 0x74, 0x00, 0x01, 0x00, 0x00, 0x00,
  0x04, 0x00, 0x00, 0x00, 0x9c, 0xff, 0xff, 0xff, 0x27, 0x00, 0x00, 0x00,
  0x04, 0x00, 0x00, 0x00, 0x08, 0x00, 0x00, 0x00, 0x6f, 0x75, 0x74, 0x70,
  0x75, 0x74, 0x5f, 0x30, 0x00, 0x00, 0x00, 0x00, 0x01, 0x00, 0x00, 0x00,
  0x04, 0x00, 0x00, 0x00, 0x5e, 0xe9, 0xff, 0xff, 0x04, 0x00, 0x00, 0x00,
  0x01, 0x00, 0x00, 0x00, 0x78, 0x00, 0x00, 0x00, 0x02, 0x00, 0x00, 0x00,
  0x34, 0x00, 0x00, 0x00, 0x04, 0x00, 0x00, 0x00, 0xdc, 0xff, 0xff, 0xff,
  0x2a, 0x00, 0x00, 0x00, 0x04, 0x00, 0x00, 0x00, 0x13, 0x00, 0x00, 0x00,
  0x43, 0x4f, 0x4e, 0x56, 0x45, 0x52, 0x53, 0x49, 0x4f, 0x4e, 0x5f, 0x4d,
  0x45, 0x54, 0x41, 0x44, 0x41, 0x54, 0x41, 0x00, 0x08, 0x00, 0x0c, 0x00,
  0x08, 0x00, 0x04, 0x00, 0x08, 0x00, 0x00, 0x00, 0x29, 0x00, 0x00, 0x00,
  0x04, 0x00, 0x00, 0x00, 0x13, 0x00, 0x00, 0x00, 0x6d, 0x69, 0x6e, 0x5f,
  0x72, 0x75, 0x6e, 0x74, 0x69, 0x6d, 0x65, 0x5f, 0x76, 0x65, 0x72, 0x73,
  0x69, 0x6f, 0x6e, 0x00, 0x2b, 0x00, 0x00, 0x00, 0x54, 0x16, 0x00, 0x00,
  0x4c, 0x16, 0x00, 0x00, 0x30, 0x16, 0x00, 0x00, 0xf8, 0x15, 0x00, 0x00,
  0xc4, 0x15, 0x00, 0x00, 0xb4, 0x14, 0x00, 0x00, 0xa4, 0x13, 0x00, 0x00,
  0x94, 0x12, 0x00, 0x00, 0x84, 0x11, 0x00, 0x00, 0x54, 0x11, 0x00, 0x00,
  0x24, 0x11, 0x00, 0x00, 0xf4, 0x10, 0x00, 0x00, 0xc4, 0x10, 0x00, 0x00,
  0xb4, 0x0f, 0x00, 0x00, 0xa4, 0x0e, 0x00, 0x00, 0x94, 0x0d, 0x00, 0x00,
  0x84, 0x0c, 0x00, 0x00, 0x74, 0x0b, 0x00, 0x00, 0x64, 0x0a, 0x00, 0x00,
  0x54, 0x09, 0x00, 0x00, 0x44, 0x08, 0x00, 0x00, 0x14, 0x08, 0x00, 0x00,
  0xe4, 0x07, 0x00, 0x00, 0xb4, 0x07, 0x00, 0x00, 0x84, 0x07, 0x00, 0x00,
  0x54, 0x06, 0x00, 0x00, 0x24, 0x05, 0x00, 0x00, 0xf4, 0x03, 0x00, 0x00,
  0xc4, 0x02, 0x00, 0x00, 0x94, 0x01, 0x00, 0x00, 0x78, 0x01, 0x00, 0x00,
  0x5c, 0x01, 0x00, 0x00, 0x40, 0x01, 0x00, 0x00, 0x10, 0x01, 0x00, 0x00,
  0x08, 0x01, 0x00, 0x00, 0xd8, 0x00, 0x00, 0x00, 0xa8, 0x00, 0x00, 0x00,
  0xa0, 0x00, 0x00, 0x00, 0x98, 0x00, 0x00, 0x00, 0x90, 0x00, 0x00, 0x00,
  0x88, 0x00, 0x00, 0x00, 0x68, 0x00, 0x00, 0x00, 0x04, 0x00, 0x00, 0x00,
  0x7a, 0xea, 0xff, 0xff, 0x04, 0x00, 0x00, 0x00, 0x54, 0x00, 0x00, 0x00,
  0x0c, 0x00, 0x00, 0x00, 0x08, 0x00, 0x0e, 0x00, 0x08, 0x00, 0x04, 0x00,
  0x08, 0x00, 0x00, 0x00, 0x10, 0x00, 0x00, 0x00, 0x24, 0x00, 0x00, 0x00,
  0x00, 0x00, 0x06, 0x00, 0x08, 0x00, 0x04, 0x00, 0x06, 0x00, 0x00, 0x00,
  0x04, 0x00, 0x00, 0x00, 0x00, 0x00, 0x00, 0x00, 0x00, 0x00, 0x0a, 0x00,
  0x10, 0x00, 0x0c, 0x00, 0x08, 0x00, 0x04, 0x00, 0x0a, 0x00, 0x00, 0x00,
  0x01, 0x00, 0x00, 0x00, 0x02, 0x00, 0x00, 0x00, 0x04, 0x00, 0x00, 0x00,
  0x06, 0x00, 0x00, 0x00, 0x32, 0x2e, 0x31, 0x35, 0x2e, 0x30, 0x00, 0x00,
  0xda, 0xea, 0xff, 0xff, 0x04, 0x00, 0x00, 0x00, 0x10, 0x00, 0x00, 0x00,
  0x31, 0x2e, 0x31, 0x33, 0x2e, 0x31, 0x00, 0x00, 0x00, 0x00, 0x00, 0x00,
  0x00, 0x00, 0x00, 0x00, 0x24, 0xdd, 0xff, 0xff, 0x28, 0xdd, 0xff, 0xff,
  0x2c, 0xdd, 0xff, 0xff, 0x30, 0xdd, 0xff, 0xff, 0x06, 0xeb, 0xff, 0xff,
  0x04, 0x00, 0x00, 0x00, 0x20, 0x00, 0x00, 0x00, 0x00, 0x00, 0x00, 0x00,
  0x00, 0x00, 0x00, 0x00, 0x00, 0x00, 0x00, 0x00, 0x00, 0x00, 0x00, 0x00,
  0x00, 0x00, 0x00, 0x00, 0x00, 0x00, 0x00, 0x00, 0x00, 0x00, 0x00, 0x00,
  0x00, 0x00, 0x00, 0x00, 0x32, 0xeb, 0xff, 0xff, 0x04, 0x00, 0x00, 0x00,
  0x20, 0x00, 0x00, 0x00, 0x00, 0x00, 0x00, 0x00, 0x00, 0x00, 0x00, 0x00,
  0x00, 0x00, 0x00, 0x00, 0x00, 0x00, 0x00, 0x00, 0x00, 0x00, 0x00, 0x00,
  0x00, 0x00, 0x00, 0x00, 0x00, 0x00, 0x00, 0x00, 0x00, 0x00, 0x00, 0x00,
  0x8c, 0xdd, 0xff, 0xff, 0x62, 0xeb, 0xff, 0xff, 0x04, 0x00, 0x00, 0x00,
  0x20, 0x00, 0x00, 0x00, 0x00, 0x00, 0x00, 0x00, 0x00, 0x00, 0x00, 0x00,
  0x00, 0x00, 0x00, 0x00, 0x00, 0x00, 0x00, 0x00, 0x00, 0x00, 0x00, 0x00,
  0x00, 0x00, 0x00, 0x00, 0x00, 0x00, 0x00, 0x00, 0x00, 0x00, 0x00, 0x00,
  0x8e, 0xeb, 0xff, 0xff, 0x04, 0x00, 0x00, 0x00, 0x0c, 0x00, 0x00, 0x00,
  0x01, 0x00, 0x00, 0x00, 0x01, 0x00, 0x00, 0x00, 0x01, 0x00, 0x00, 0x00,
  0xa6, 0xeb, 0xff, 0xff, 0x04, 0x00, 0x00, 0x00, 0x0c, 0x00, 0x00, 0x00,
  0x00, 0x00, 0x00, 0x00, 0x00, 0x00, 0x00, 0x00, 0x00, 0x00, 0x00, 0x00,
  0xbe, 0xeb, 0xff, 0xff, 0x04, 0x00, 0x00, 0x00, 0x0c, 0x00, 0x00, 0x00,
  0x00, 0x00, 0x00, 0x00, 0xff, 0xff, 0xff, 0xff, 0x00, 0x00, 0x00, 0x00,
  0xd6, 0xeb, 0xff, 0xff, 0x04, 0x00, 0x00, 0x00, 0x20, 0x01, 0x00, 0x00,
  0x52, 0x86, 0xf0, 0xbd, 0xf6, 0xab, 0xa5, 0xbf, 0x3e, 0x5b, 0x72, 0x3d,
  0xcd, 0xc3, 0x67, 0xbf, 0x61, 0x30, 0x96, 0x3f, 0x03, 0xa9, 0xa2, 0xbf,
  0xf2, 0xca, 0x56, 0x3c, 0x79, 0xa7, 0xc0, 0xbe, 0xbd, 0x4f, 0x7f, 0xbf,
  0x35, 0xea, 0xd6, 0xbe, 0xaf, 0xc9, 0x4d, 0xbf, 0xd2, 0x11, 0x13, 0xbf,
  0x07, 0xca, 0xfb, 0x3e, 0xe9, 0xfc, 0xd5, 0xbe, 0x08, 0x42, 0xfd, 0x3e,
  0x7d, 0x46, 0xa8, 0xbf, 0x92, 0xe4, 0x0b, 0xbe, 0xca, 0xf4, 0xc4, 0x3e,
  0x61, 0xee, 0x46, 0xbf, 0x7d, 0x4f, 0x84, 0xbd, 0x76, 0xb6, 0x32, 0xbf,
  0xc4, 0x1b, 0x40, 0xbf, 0x0b, 0x0b, 0xe9, 0x3f, 0xe7, 0x59, 0xac, 0x3e,
  0xf3, 0x20, 0x77, 0x3f, 0xeb, 0x09, 0x02, 0x3f, 0xee, 0x87, 0xff, 0x3e,
  0xb8, 0x04, 0x06, 0xc0, 0x75, 0x20, 0x00, 0xc0, 0x2e, 0xf0, 0xe6, 0xbf,
  0xaf, 0x30, 0x9e, 0xbf, 0x8a, 0xa7, 0x67, 0xbf, 0x7d, 0x54, 0xa6, 0x3f,
  0x3b, 0x77, 0xb3, 0xbf, 0x20, 0x71, 0x22, 0xc0, 0xc2, 0x9d, 0x9c, 0x3f,
  0x32, 0x06, 0x69, 0xbf, 0x0c, 0x0f, 0x4c, 0x3f, 0xac, 0x5d, 0x7a, 0xbe,
  0xf8, 0x33, 0x0b, 0x3f, 0x28, 0x05, 0xb3, 0x3f, 0xec, 0xb6, 0xf2, 0x3f,
  0x02, 0xa8, 0xb6, 0xbe, 0x13, 0x4f, 0x27, 0xbf, 0xd2, 0x58, 0xd3, 0x3f,
  0x9a, 0x68, 0x94, 0x3e, 0xad, 0xb1, 0xb0, 0xbe, 0xc0, 0xb4, 0x80, 0xbd,
  0x32, 0xb4, 0x37, 0xbf, 0x93, 0xde, 0xe7, 0x3f, 0x2e, 0x55, 0x66, 0xbe,
  0xd3, 0xc9, 0xc6, 0x3f, 0xd5, 0xd2, 0x81, 0xbf, 0xec, 0xe6, 0x80, 0x3d,
  0xf4, 0x1f, 0xbc, 0xbf, 0xa2, 0x9c, 0x54, 0xbf, 0xcb, 0x79, 0x03, 0x3f,
  0x06, 0x10, 0x64, 0x3d, 0xa8, 0xa7, 0x45, 0x3f, 0x71, 0x60, 0x34, 0x3f,
  0x1f, 0xaf, 0xbe, 0x3d, 0x78, 0x13, 0xc0, 0xbf, 0x20, 0x86, 0x46, 0x3c,
  0xde, 0x02, 0x85, 0x3f, 0x8b, 0x1f, 0x20, 0x3f, 0x77, 0x11, 0xb9, 0xbe,
  0x46, 0x0f, 0x3d, 0x3f, 0x24, 0xae, 0x03, 0x3f, 0x9d, 0x52, 0xc1, 0x3e,
  0x11, 0xb4, 0xeb, 0xbd, 0x91, 0xe6, 0x3a, 0x3f, 0xf4, 0x5c, 0x84, 0xbf,
  0x02, 0xed, 0xff, 0xff, 0x04, 0x00, 0x00, 0x00, 0x20, 0x01, 0x00, 0x00,
  0x49, 0x47, 0xcb, 0xbe, 0x4c, 0xfa, 0xad, 0x3d, 0x6b, 0xd5, 0xcd, 0x3d,
  0x21, 0x06, 0x31, 0xbe, 0x93, 0x3a, 0x6f, 0x3d, 0x31, 0xcf, 0xb4, 0xbe,
  0x15, 0x5b, 0x7c, 0x3e, 0x01, 0xba, 0xcc, 0xbe, 0xe0, 0xd3, 0x3e, 0x3d,
  0xf7, 0x35, 0xe4, 0xbc, 0xc7, 0x65, 0xdf, 0xbd, 0xea, 0xe5, 0x9e, 0xbe,
  0x13, 0x0e, 0x00, 0xbf, 0x56, 0xc4, 0x82, 0xbe, 0xae, 0x44, 0xc0, 0xbc,
  0x30, 0x68, 0xf9, 0x3c, 0xf0, 0x95, 0xa9, 0xbe, 0x1a, 0x8c, 0xd9, 0x3d,
  0x8d, 0xf6, 0x5d, 0x3b, 0x9d, 0xb1, 0x63, 0x3d, 0xfe, 0x04, 0xbc, 0x3d,
  0x15, 0x94, 0x0c, 0x3e, 0xf8, 0x62, 0xa1, 0xbc, 0xd1, 0xba, 0x56, 0x3e,
  0xeb, 0xa9, 0x05, 0x3f, 0x36, 0xf3, 0x84, 0x3e, 0x81, 0xe1, 0xa8, 0xbe,
  0xa6, 0x9e, 0x58, 0xbe, 0xe9, 0xa1, 0x48, 0xbe, 0x40, 0xf8, 0xa1, 0x3d,
  0xea, 0x89, 0x0c, 0x3f, 0x80, 0x77, 0xb7, 0xbd, 0xe2, 0xdf, 0x8d, 0x3e,
  0xbd, 0x0b, 0x6c, 0x3d, 0xda, 0x32, 0x7c, 0xbe, 0xab, 0xcb, 0x89, 0x3e,
  0x5d, 0xd9, 0x4b, 0xbc, 0xc5, 0x60, 0xad, 0xbe, 0x65, 0xe4, 0x3b, 0xbe,
  0x7d, 0x85, 0x96, 0xbe, 0xff, 0xba, 0x14, 0x3e, 0xbb, 0x55, 0x5f, 0xbe,
  0x16, 0xc1, 0x90, 0x3e, 0xee, 0xcd, 0x3f, 0xbf, 0x97, 0x9b, 0xe6, 0x3c,
  0x28, 0x98, 0x6b, 0xbe, 0xf0, 0x7e, 0x06, 0x3d, 0xbf, 0x0a, 0xa5, 0xbe,
  0x29, 0x17, 0xd8, 0xbe, 0x13, 0x29, 0xe9, 0xbe, 0x44, 0x08, 0x47, 0xbe,
  0x52, 0xc9, 0xac, 0x3e, 0xe5, 0x38, 0xee, 0x3e, 0x97, 0xdb, 0x81, 0xbe,
  0x63, 0xea, 0xeb, 0xbe, 0xc7, 0x0f, 0xd2, 0xbc, 0x81, 0x80, 0x4a, 0xbc,
  0xae, 0x77, 0xda, 0x3c, 0x35, 0x00, 0x54, 0xbe, 0x21, 0x5f, 0x93, 0xbe,
  0x1d, 0x23, 0x05, 0xbe, 0x94, 0x83, 0x32, 0x3b, 0xff, 0x4f, 0xa8, 0xbd,
  0xf5, 0x8a, 0x96, 0xbe, 0xfd, 0x7a, 0xaa, 0xbe, 0xc1, 0x51, 0xf9, 0x3d,
  0x9f, 0x78, 0xe2, 0xbd, 0xde, 0xdb, 0x22, 0x3d, 0x11, 0x1c, 0x68, 0xbe,
  0x6a, 0xb7, 0x8c, 0x3e, 0x2a, 0x6f, 0x1f, 0xbf, 0x38, 0xae, 0x94, 0x3d,
  0x2e, 0xee, 0xff, 0xff, 0x04, 0x00, 0x00, 0x00, 0x20, 0x01, 0x00, 0x00,
  0x7d, 0xc0, 0xf1, 0x3d, 0x33, 0xa2, 0xf8, 0x3c, 0xb2, 0x41, 0x06, 0xbe,
  0x53, 0x9a, 0xa0, 0xbd, 0x10, 0x52, 0x63, 0xbe, 0x43, 0x71, 0x13, 0x3f,
  0xb1, 0xf4, 0xd1, 0x3d, 0x01, 0x0a, 0x96, 0xbe, 0x2a, 0x1e, 0xb1, 0x3e,
  0xf5, 0x78, 0x03, 0xbc, 0x43, 0x83, 0xcf, 0xbe, 0x64, 0x8b, 0xb2, 0x3c,
  0x2f, 0xf1, 0xac, 0xbe, 0xee, 0xc1, 0x9b, 0x3c, 0x93, 0x32, 0xd8, 0x3c,
  0x9a, 0x31, 0x90, 0x3d, 0xa3, 0x16, 0xf4, 0xbd, 0x93, 0xad, 0x97, 0x3e,
  0xe7, 0x2c, 0xd6, 0x3d, 0xbe, 0x61, 0x9e, 0xbe, 0x1e, 0x3c, 0x2e, 0xbc,
  0x89, 0x33, 0xed, 0x3c, 0xd8, 0xbb, 0xd2, 0x3e, 0x9d, 0xda, 0xfe, 0xbd,
  0xa3, 0xfb, 0x16, 0x3c, 0xb0, 0x87, 0xc2, 0xbe, 0x07, 0x29, 0xaa, 0x3e,
  0x09, 0xc5, 0xda, 0x3d, 0xa9, 0xa2, 0xe9, 0xbe, 0x60, 0xb6, 0x6a, 0x3d,
  0xa7, 0x85, 0xfe, 0x3d, 0x01, 0xf1, 0xca, 0x3d, 0x48, 0x2f, 0xa8, 0xbd,
  0x1b, 0x1a, 0x7e, 0x3e, 0xba, 0x75, 0x02, 0x3d, 0x5e, 0xf4, 0xcf, 0x3e,
  0xf2, 0x5b, 0x80, 0xbe, 0x33, 0xb6, 0x86, 0x39, 0xbe, 0xd4, 0x1d, 0xbd,
  0x93, 0xc1, 0xab, 0x3e, 0x7d, 0x9c, 0xec, 0x3e, 0x12, 0xaf, 0xb0, 0x3e,
  0xf5, 0x37, 0x19, 0xbe, 0xc0, 0xc7, 0xfc, 0x3d, 0x43, 0xae, 0xfb, 0xbd,
  0xad, 0x06, 0x01, 0x3e, 0x4c, 0x27, 0x3f, 0xbe, 0x1e, 0xa0, 0xf3, 0x39,
  0x1c, 0xe4, 0x8f, 0xbe, 0x7b, 0x13, 0x64, 0xbd, 0x6a, 0xc6, 0x6c, 0x3d,
  0xa3, 0x58, 0x79, 0x3e, 0x62, 0x49, 0x15, 0xbe, 0x12, 0x00, 0xac, 0x3e,
  0xe6, 0x18, 0x93, 0xbe, 0xd4, 0x65, 0xae, 0x3e, 0x31, 0x88, 0xf4, 0x3d,
  0x5f, 0x18, 0x08, 0xbf, 0x2c, 0x65, 0xb1, 0xbe, 0x3d, 0x64, 0xc0, 0xbc,
  0xfb, 0xd0, 0x5c, 0xbe, 0xe2, 0x02, 0xd9, 0x3e, 0xcb, 0x94, 0x61, 0xbe,
  0xf0, 0x78, 0x7b, 0xbd, 0x39, 0x0b, 0x8c, 0x3e, 0x9e, 0xb5, 0x97, 0xbd,
  0x5f, 0x19, 0xdf, 0x3c, 0xdc, 0x35, 0x39, 0xbe, 0xb1, 0x75, 0xea, 0xbe,
  0x9c, 0x4e, 0xf3, 0x3c, 0xda, 0xe1, 0x84, 0xbe, 0x41, 0x6f, 0x89, 0x3e,
  0x5a, 0xef, 0xff, 0xff, 0x04, 0x00, 0x00, 0x00, 0x20, 0x01, 0x00, 0x00,
  0xb7, 0x76, 0x0e, 0x3e, 0x90, 0x9f, 0x36, 0xbd, 0xa0, 0xf9, 0x43, 0x3e,
  0xd0, 0xe8, 0xfc, 0x3e, 0x71, 0xb5, 0x6c, 0x3d, 0x83, 0xb7, 0xa1, 0xbc,
  0x51, 0x30, 0x90, 0xbe, 0xc8, 0xa1, 0xc4, 0xbe, 0x60, 0xda, 0x84, 0xbe,
  0x2b, 0x7d, 0xa0, 0xbe, 0x52, 0x7b, 0x16, 0xbe, 0xc4, 0x78, 0x33, 0x3e,
  0xa7, 0xd5, 0xa3, 0x3d, 0x56, 0x53, 0x41, 0xbe, 0xad, 0xc8, 0xa3, 0xbd,
  0xfb, 0x98, 0x28, 0x3e, 0x15, 0xff, 0x5c, 0xbe, 0x94, 0x4c, 0xa1, 0x3e,
  0x40, 0xcc, 0xdf, 0xbd, 0x0b, 0x98, 0xa7, 0xbe, 0x1c, 0x02, 0xad, 0x3e,
  0x04, 0xa6, 0x71, 0xbd, 0x9d, 0x92, 0x36, 0xbe, 0x20, 0x39, 0x01, 0x3e,
  0x50, 0x28, 0x0b, 0x3d, 0x2c, 0xe7, 0xed, 0x3d, 0xac, 0xaf, 0x75, 0xbe,
  0xcb, 0x31, 0x4b, 0x3c, 0x55, 0x01, 0x9a, 0xbe, 0xb4, 0xfd, 0x96, 0x3e,
  0x6d, 0x1c, 0xb9, 0x3e, 0xe8, 0x00, 0xfb, 0x3d, 0xeb, 0x02, 0x44, 0x3e,
  0xdb, 0x5d, 0x8e, 0xbc, 0x94, 0x2a, 0x00, 0xbf, 0xc6, 0x7a, 0xa8, 0xbd,
  0xfd, 0xf5, 0xf0, 0x3c, 0x2d, 0x9b, 0xcb, 0xbe, 0xbc, 0xc5, 0x8a, 0x3e,
  0xeb, 0x66, 0xac, 0xbb, 0xcd, 0x8b, 0xed, 0xbd, 0x42, 0x94, 0x58, 0x3e,
  0x6f, 0xcb, 0xfa, 0xbd, 0x90, 0x40, 0x53, 0x3e, 0x5b, 0xbf, 0xf3, 0x3e,
  0xcc, 0x79, 0xfa, 0xbd, 0x86, 0xb8, 0xa7, 0xbe, 0xc7, 0xb7, 0x52, 0x3d,
  0x61, 0x9d, 0x91, 0x3e, 0x58, 0x64, 0x22, 0x3e, 0x26, 0x54, 0xa7, 0x3e,
  0xcd, 0x49, 0x24, 0xbe, 0x72, 0xbb, 0x29, 0x3e, 0x36, 0xbb, 0x99, 0x3e,
  0x09, 0xa5, 0xd5, 0xbe, 0x9b, 0xab, 0x8c, 0xbe, 0xd7, 0x27, 0x40, 0x3e,
  0x26, 0xa3, 0x72, 0x3e, 0xcd, 0xd2, 0x76, 0x3e, 0x9b, 0x94, 0x5f, 0x3e,
  0x6f, 0xb6, 0x21, 0x3e, 0x48, 0xff, 0x4a, 0xbe, 0x53, 0x44, 0xb8, 0xbe,
  0x15, 0x28, 0xac, 0x3d, 0xb9, 0x69, 0x7f, 0xbc, 0x5e, 0xcf, 0xd1, 0x3e,
  0x20, 0xa0, 0x93, 0x3c, 0xf5, 0x33, 0x79, 0x3e, 0x8f, 0x1f, 0x31, 0xbe,
  0x3d, 0x30, 0x4b, 0xbe, 0x48, 0xbb, 0xbe, 0xbb, 0x4b, 0x77, 0x80, 0x3d,
  0x86, 0xf0, 0xff, 0xff, 0x04, 0x00, 0x00, 0x00, 0x20, 0x01, 0x00, 0x00,
  0x19, 0xfa, 0xc0, 0x3d, 0x49, 0x6a, 0xa3, 0xbe, 0x1e, 0x37, 0x8e, 0xbd,
  0xb3, 0x40, 0x5a, 0xbc, 0xdb, 0x5e, 0x54, 0x3d, 0xea, 0x48, 0xc3, 0xbe,
  0xc3, 0xfb, 0xc0, 0xbd, 0xdd, 0x75, 0x86, 0xbe, 0xc3, 0x2d, 0xc1, 0x3e,
  0x61, 0xbb, 0x3c, 0x3e, 0xe3, 0xf4, 0xa9, 0xbe, 0x54, 0x66, 0xc8, 0x3d,
  0x8c, 0x90, 0x9e, 0x3d, 0x4c, 0x88, 0xc9, 0xbe, 0xd4, 0xd7, 0x9f, 0x3e,
  0x8f, 0xe4, 0xab, 0xbe, 0xc5, 0x14, 0x94, 0xbe, 0x46, 0x88, 0x9f, 0xbd,
  0x72, 0x20, 0x94, 0xbd, 0x40, 0x8b, 0x47, 0xbe, 0x31, 0x64, 0x76, 0xbe,
  0x86, 0x1e, 0x0c, 0xbf, 0xd7, 0xab, 0xaa, 0xbe, 0x5c, 0x72, 0xd6, 0xbd,
  0xc4, 0x56, 0xd8, 0xbd, 0xc8, 0x3d, 0xe3, 0x3e, 0x29, 0x58, 0xa0, 0xbe,
  0x75, 0x28, 0xbd, 0x3d, 0xbf, 0x07, 0x13, 0xbc, 0xa9, 0x05, 0x9d, 0xbd,
  0xe5, 0xc5, 0x9f, 0x3d, 0xd7, 0x2f, 0xa4, 0x3e, 0x0b, 0xd9, 0xe6, 0xbd,
  0xb2, 0x04, 0x12, 0xbe, 0xb4, 0x42, 0x45, 0xbf, 0xfe, 0x97, 0xe2, 0x3d,
  0xf7, 0xf9, 0x21, 0xbe, 0x84, 0x59, 0x56, 0xbe, 0xcb, 0x70, 0x93, 0xbe,
  0x15, 0xaa, 0x29, 0xbe, 0x90, 0x28, 0xc1, 0xbe, 0x46, 0x89, 0x8b, 0x3d,
  0x0f, 0xc5, 0xcc, 0x3e, 0x54, 0x88, 0x94, 0x3e, 0x53, 0xbb, 0x34, 0x3e,
  0xa7, 0xee, 0xd3, 0xbd, 0xaa, 0x90, 0x30, 0x3e, 0xcd, 0xba, 0xa2, 0x3d,
  0x06, 0x2b, 0x75, 0xbe, 0x29, 0x37, 0x8f, 0xbe, 0xfa, 0xe4, 0x28, 0xbe,
  0x71, 0x79, 0xd3, 0xbd, 0x1a, 0x7f, 0xb5, 0x3e, 0x73, 0x70, 0x46, 0xbe,
  0x28, 0x3a, 0xfc, 0x3a, 0xac, 0x01, 0x82, 0xbd, 0x72, 0xed, 0xfa, 0x3c,
  0x45, 0x9c, 0x33, 0x3f, 0xbd, 0x85, 0x8b, 0x3e, 0x10, 0xac, 0xc5, 0xbd,
  0x15, 0xd9, 0x9a, 0x3d, 0x4f, 0x6c, 0x0c, 0x3e, 0x52, 0x17, 0x2d, 0x3f,
  0xf5, 0x2c, 0x7f, 0x3e, 0x02, 0x81, 0x1b, 0xbe, 0x50, 0xf1, 0xea, 0xbd,
  0xc1, 0x06, 0xf9, 0xbe, 0x10, 0x5e, 0xf8, 0xbe, 0x8a, 0xb9, 0x59, 0xbe,
  0xb4, 0x9b, 0x9b, 0x3e, 0x4e, 0x29, 0x4f, 0xbe, 0xa8, 0x00, 0xfd, 0xbe,
  0xb2, 0xf1, 0xff, 0xff, 0x04, 0x00, 0x00, 0x00, 0x20, 0x00, 0x00, 0x00,
  0x73, 0x98, 0x02, 0x3f, 0x3d, 0xaf, 0x00, 0x3e, 0x9d, 0xf3, 0x40, 0x3e,
  0xba, 0x56, 0xb9, 0x3e, 0x2d, 0xa0, 0xcc, 0x3e, 0x41, 0x3d, 0xcc, 0x3e,
  0x36, 0x46, 0x17, 0x3f, 0x15, 0xc8, 0x90, 0x3e, 0xde, 0xf1, 0xff, 0xff,
  0x04, 0x00, 0x00, 0x00, 0x20, 0x00, 0x00, 0x00, 0xde, 0x6a, 0xab, 0x3d,
  0x5e, 0x5f, 0x9d, 0x3d, 0x48, 0xf9, 0x0e, 0xbd, 0x6d, 0xcf, 0x57, 0xbe,
  0x5c, 0x40, 0x29, 0xbd, 0x0a, 0x98, 0x14, 0x3d, 0x48, 0x7f, 0x29, 0xbe,
  0x04, 0xa5, 0x56, 0xbe, 0x0a, 0xf2, 0xff, 0xff, 0x04, 0x00, 0x00, 0x00,
  0x20, 0x00, 0x00, 0x00, 0xf4, 0x19, 0x84, 0x3f, 0xbb, 0x95, 0x71, 0x3f,
  0x60, 0x12, 0x5b, 0x3f, 0x9a, 0x3b, 0x57, 0x3f, 0x35, 0x09, 0x63, 0x3f,
  0xb5, 0x80, 0x60, 0x3f, 0xe3, 0x85, 0x80, 0x3f, 0xe2, 0xeb, 0x2f, 0x3f,
  0x36, 0xf2, 0xff, 0xff, 0x04, 0x00, 0x00, 0x00, 0x20, 0x00, 0x00, 0x00,
  0x25, 0x74, 0x0a, 0x3f, 0x09, 0xda, 0x25, 0x3e, 0xc2, 0x17, 0x97, 0x3d,
  0x23, 0xc9, 0x49, 0x3e, 0xec, 0x40, 0xa6, 0x3e, 0x3a, 0x7b, 0x9c, 0x3e,
  0x65, 0xd4, 0x04, 0x3f, 0x04, 0x67, 0xaf, 0x3e, 0x62, 0xf2, 0xff, 0xff,
  0x04, 0x00, 0x00, 0x00, 0x00, 0x01, 0x00, 0x00, 0xc0, 0x0c, 0x88, 0xbe,
  0x07, 0xa7, 0x1d, 0x3e, 0x95, 0xcb, 0x81, 0x3e, 0x04, 0x57, 0xe4, 0xbe,
  0x37, 0x3f, 0x47, 0xbe, 0x0d, 0x7b, 0x19, 0xbe, 0x92, 0x00, 0xbb, 0xbe,
  0x1f, 0xdf, 0x6d, 0x3e, 0x29, 0x99, 0x74, 0x3c, 0x36, 0xce, 0x52, 0x3d,
  0x2b, 0x32, 0xae, 0xbe, 0x41, 0x66, 0xd5, 0xbe, 0x60, 0xb0, 0x00, 0x3f,
  0xc9, 0x4c, 0x6e, 0x3d, 0xc9, 0x61, 0x24, 0x3e, 0x3a, 0x3b, 0x69, 0xbd,
  0xd2, 0xd3, 0x24, 0x3d, 0x4a, 0x04, 0xb3, 0xbc, 0xe1, 0x04, 0xae, 0xbe,
  0x60, 0x2a, 0xe8, 0xbd, 0xac, 0x53, 0x00, 0x3f, 0x56, 0x39, 0x16, 0x3e,
  0xb1, 0x0d, 0xfe, 0xbd, 0xd0, 0x7c, 0x23, 0xbf, 0x92, 0x5d, 0xe9, 0x3e,
  0xc6, 0xe8, 0x8b, 0x3e, 0xf1, 0x39, 0xab, 0x3e, 0x4f, 0x1f, 0x18, 0xbe,
  0x67, 0x0c, 0x2a, 0xbf, 0xb1, 0x15, 0xb7, 0x3e, 0x09, 0x60, 0x48, 0xbf,
  0x37, 0x4c, 0x6b, 0x3e, 0xc7, 0x35, 0x33, 0xbe, 0x09, 0xf1, 0x53, 0x3e,
  0xf3, 0x01, 0x05, 0xbe, 0x78, 0xfd, 0x19, 0xbf, 0xb2, 0x75, 0x20, 0xbe,
  0xc9, 0xe3, 0xc8, 0x3c, 0xbd, 0xcf, 0xc3, 0xbd, 0xed, 0x83, 0x25, 0x3e,
  0x06, 0xde, 0x57, 0xbe, 0x75, 0x35, 0x06, 0xbe, 0xb6, 0xac, 0x52, 0x3e,
  0x16, 0xf0, 0x34, 0x3e, 0xad, 0x5f, 0x86, 0xbd, 0x9b, 0x8a, 0x07, 0x3f,
  0xfe, 0xad, 0x93, 0xbe, 0x6c, 0xfd, 0x59, 0x3c, 0x69, 0xc8, 0x43, 0x3e,
  0x30, 0x0c, 0x9c, 0x3e, 0xca, 0x11, 0xae, 0xbe, 0xf1, 0xbe, 0xdd, 0xbc,
  0x6d, 0xd8, 0x7f, 0x3e, 0x45, 0x56, 0xd6, 0x3e, 0x20, 0x22, 0xe9, 0xbd,
  0xc0, 0x61, 0xf9, 0xbc, 0x16, 0xdf, 0xf0, 0x3e, 0xe6, 0x47, 0xe1, 0x3e,
  0x15, 0x72, 0x60, 0xbe, 0x48, 0xd5, 0x88, 0xbe, 0x65, 0x4b, 0xec, 0xbe,
  0xf3, 0x65, 0x0f, 0x3f, 0xa6, 0x5d, 0xaf, 0xbe, 0x68, 0x18, 0x58, 0xbd,
  0x6e, 0xf3, 0xff, 0xff, 0x04, 0x00, 0x00, 0x00, 0x00, 0x01, 0x00, 0x00,
  0xc3, 0x21, 0x95, 0x3d, 0xf0, 0x9e, 0x87, 0x3e, 0x25, 0x6b, 0xab, 0x3e,
  0x4d, 0xa4, 0x27, 0x3d, 0xb3, 0xb1, 0xe0, 0xbd, 0x06, 0x2d, 0x80, 0x3d,
  0xe8, 0x53, 0x17, 0x3e, 0x15, 0xc0, 0xf5, 0xbe, 0xcf, 0x23, 0x3a, 0x3e,
  0x77, 0xe8, 0x14, 0xbe, 0x1c, 0xeb, 0xec, 0xbe, 0x98, 0x3e, 0x5d, 0x3d,
  0x66, 0x7d, 0x04, 0xbe, 0xcc, 0x61, 0x36, 0xbf, 0xbd, 0x54, 0xd2, 0x3c,
  0xae, 0x45, 0xa0, 0xbe, 0x4e, 0xf7, 0xc5, 0xbd, 0x8c, 0x52, 0x28, 0x3d,
  0xe9, 0x78, 0xf9, 0x3d, 0x86, 0xab, 0xc1, 0x3c, 0x7a, 0x03, 0x95, 0x3e,
  0x1f, 0x53, 0x93, 0xbe, 0x95, 0x14, 0xa7, 0xbd, 0x17, 0xa2, 0x60, 0xbe,
  0x7e, 0x92, 0x10, 0x3e, 0x48, 0x6a, 0x02, 0xbe, 0xc9, 0xff, 0xb7, 0xbe,
  0x74, 0x90, 0x05, 0xbe, 0x54, 0x2b, 0x91, 0xbd, 0xa2, 0x62, 0xd7, 0x3e,
  0xaf, 0x54, 0x35, 0x3e, 0xa4, 0x4d, 0xaa, 0xbd, 0xc2, 0xbb, 0x5f, 0xbd,
  0x6e, 0x74, 0x9c, 0xbe, 0xcd, 0xa1, 0x9f, 0xbc, 0x8e, 0xad, 0xce, 0x3d,
  0xda, 0xa8, 0x03, 0xbf, 0xab, 0x4a, 0xee, 0xbc, 0x11, 0xe2, 0xe7, 0x3d,
  0xfd, 0x03, 0x03, 0x3d, 0xce, 0x13, 0xe1, 0xbe, 0xf8, 0x91, 0x5a, 0x3e,
  0x31, 0x4e, 0xb9, 0x3d, 0xd0, 0x56, 0x8b, 0xbe, 0xfa, 0x0b, 0x0d, 0x3e,
  0x7b, 0xa0, 0xfc, 0x3c, 0xc9, 0x86, 0x8d, 0xbe, 0xf0, 0xd3, 0xe5, 0xbd,
  0xbf, 0x6d, 0x0b, 0x3e, 0xdd, 0x47, 0x48, 0xbe, 0xbe, 0xa2, 0x81, 0x3e,
  0x2e, 0xf9, 0x29, 0x3e, 0x10, 0x23, 0x62, 0x3e, 0x97, 0xe3, 0xa3, 0xbe,
  0x37, 0x38, 0x01, 0xbf, 0xba, 0xee, 0x50, 0xbe, 0x5c, 0x55, 0x22, 0x3e,
  0xf5, 0x1d, 0x6a, 0x3e, 0x6d, 0xb2, 0x1b, 0x3e, 0xa4, 0x79, 0x24, 0xbe,
  0x30, 0x34, 0x9d, 0xbd, 0x2b, 0x74, 0x58, 0xbd, 0x67, 0xf3, 0xdf, 0x3d,
  0xcc, 0x80, 0x29, 0xbe, 0x7a, 0xf4, 0xff, 0xff, 0x04, 0x00, 0x00, 0x00,
  0x00, 0x01, 0x00, 0x00, 0x85, 0xfd, 0x2b, 0xbd, 0x38, 0xae, 0x42, 0xbe,
  0x19, 0x96, 0xc3, 0x3e, 0xc8, 0xf8, 0x0a, 0x3e, 0xa6, 0x6d, 0xbc, 0x3d,
  0x22, 0x96, 0x83, 0xbe, 0xec, 0x1b, 0x2b, 0x3d, 0xe6, 0x70, 0x64, 0x3e,
  0xa0, 0x72, 0x62, 0xbe, 0x38, 0xbe, 0x5c, 0x3e, 0x21, 0x2d, 0x04, 0xbe,
  0xa1, 0xb4, 0x38, 0xbd, 0x93, 0x8f, 0xc5, 0xbe, 0x6b, 0x61, 0x05, 0x3e,
  0xc0, 0xf0, 0x89, 0xbd, 0xef, 0xd5, 0x51, 0x3d, 0x62, 0x6b, 0x70, 0x3e,
  0x33, 0x49, 0x01, 0xbf, 0x03, 0xd8, 0xd8, 0x3e, 0xcc, 0x70, 0x5a, 0xbd,
  0x54, 0xce, 0x1c, 0xbe, 0xb6, 0x81, 0xc1, 0x3d, 0xb9, 0xf7, 0xad, 0x3e,
  0x3b, 0x88, 0x85, 0x3c, 0xdb, 0xe7, 0xad, 0x3e, 0x30, 0x7a, 0x14, 0xbe,
  0xdf, 0x6a, 0x9e, 0x3e, 0xee, 0x90, 0x2c, 0xbe, 0x60, 0xf7, 0x7e, 0x3e,
  0x46, 0x7c, 0x09, 0x3e, 0xe3, 0x98, 0x06, 0xbf, 0x46, 0xd1, 0x58, 0x3e,
  0xa0, 0x81, 0xda, 0x3e, 0xdc, 0x31, 0x45, 0x3c, 0x91, 0xc5, 0x31, 0x3d,
  0x0b, 0x67, 0x9b, 0x3e, 0x62, 0xe8, 0x3e, 0x3e, 0x45, 0x72, 0xbe, 0x3c,
  0x2f, 0x3d, 0x97, 0xbe, 0xd8, 0x3d, 0x94, 0x3e, 0x86, 0xe3, 0x75, 0xbe,
  0x5d, 0x22, 0x4d, 0x3e, 0xdf, 0x0a, 0xd2, 0x3e, 0x26, 0x23, 0xcc, 0xbd,
  0x64, 0x8d, 0xef, 0x3d, 0x53, 0xb0, 0xec, 0xbd, 0x9e, 0xbe, 0x51, 0xbb,
  0xdf, 0xf5, 0x98, 0x3e, 0x94, 0x79, 0x9b, 0xbe, 0x7f, 0xff, 0x76, 0xbf,
  0x7f, 0x28, 0x4e, 0x3e, 0xde, 0x20, 0x2a, 0x3d, 0xb8, 0x78, 0xcd, 0x3e,
  0x45, 0x47, 0xbf, 0x3e, 0xdd, 0x1c, 0x28, 0xbd, 0xc5, 0x21, 0x2d, 0xbf,
  0xf1, 0x47, 0x99, 0x3e, 0xb0, 0x95, 0x1a, 0x3d, 0x64, 0x0e, 0x3f, 0x3e,
  0xca, 0xe5, 0x25, 0xbe, 0x88, 0x5a, 0x3b, 0x3e, 0xf5, 0xfa, 0xc2, 0x3d,
  0x25, 0x3d, 0x6d, 0xbe, 0xa9, 0x88, 0x66, 0xbd, 0x86, 0xf5, 0xff, 0xff,
  0x04, 0x00, 0x00, 0x00, 0x00, 0x01, 0x00, 0x00, 0x37, 0x0a, 0x39, 0x3e,
  0xd2, 0xe6, 0xaf, 0x3e, 0x69, 0xf2, 0x0f, 0xbe, 0x56, 0xbc, 0x45, 0xbe,
  0x5b, 0x5b, 0xca, 0x3d, 0x93, 0xcd, 0x1f, 0x3d, 0x1a, 0x95, 0xbe, 0xbe,
  0x73, 0xd7, 0x6b, 0x3d, 0xbf, 0x10, 0xdb, 0x3d, 0x71, 0x11, 0x7b, 0xbe,
  0xa9, 0xa8, 0x08, 0x3e, 0xd4, 0x0b, 0x22, 0x3d, 0x91, 0x91, 0x27, 0xbe,
  0xf8, 0xed, 0x9c, 0x3d, 0x7a, 0x5d, 0x9d, 0xbe, 0x28, 0x94, 0xb8, 0xbd,
  0x12, 0x8c, 0x0f, 0x3e, 0x6d, 0x15, 0x85, 0x3e, 0xed, 0xa5, 0x25, 0xbe,
  0xde, 0x96, 0x2d, 0x3d, 0x37, 0x19, 0x56, 0xbe, 0x26, 0xfd, 0x73, 0x3e,
  0xb7, 0x89, 0x16, 0xbe, 0x9b, 0xf9, 0x66, 0xbd, 0xc3, 0x9f, 0x8d, 0xbe,
  0xf1, 0x87, 0xa9, 0xbe, 0x97, 0x0e, 0x2d, 0x3e, 0x34, 0x0a, 0x8e, 0x3e,
  0x99, 0x14, 0x60, 0xbf, 0x2c, 0xc5, 0x56, 0xbe, 0x25, 0xb9, 0xf4, 0x3d,
  0x72, 0x85, 0x18, 0x3f, 0x92, 0xd7, 0x49, 0x3d, 0xc4, 0x6b, 0xa3, 0x3e,
  0xb0, 0x14, 0x7c, 0xbd, 0xe1, 0x32, 0xea, 0x3d, 0x2e, 0xe4, 0x96, 0xbe,
  0xcb, 0xaa, 0xaf, 0x3d, 0x70, 0x57, 0x96, 0xbe, 0x31, 0xb0, 0x56, 0x3e,
  0xba, 0xc7, 0x81, 0xbe, 0x6a, 0xff, 0xcb, 0xbc, 0xfd, 0xa4, 0x7a, 0x3d,
  0xc2, 0x51, 0xba, 0xbd, 0x18, 0xcc, 0xda, 0x3d, 0x02, 0x50, 0xb8, 0x3e,
  0xf7, 0x70, 0x84, 0xbe, 0xce, 0xa1, 0x89, 0x3e, 0x75, 0x4a, 0x1d, 0xbc,
  0x61, 0x8d, 0x96, 0x3d, 0x5c, 0x1b, 0x94, 0x3c, 0x0b, 0x9a, 0x15, 0xbe,
  0xc6, 0x5e, 0x99, 0x3d, 0xd4, 0x0a, 0x82, 0x3d, 0x22, 0x5d, 0x2a, 0x3e,
  0x89, 0xe3, 0xcd, 0x3e, 0x15, 0x59, 0x22, 0x3e, 0xba, 0x87, 0x4f, 0x3e,
  0x88, 0xb3, 0x1d, 0xbf, 0xb4, 0x5b, 0xa0, 0xbe, 0xf0, 0x11, 0xdb, 0x3b,
  0x84, 0xc2, 0x4e, 0x3f, 0xcd, 0x9c, 0x1c, 0xbf, 0x36, 0x93, 0xf0, 0xbd,
  0x92, 0xf6, 0xff, 0xff, 0x04, 0x00, 0x00, 0x00, 0x00, 0x01, 0x00, 0x00,
  0x5c, 0x54, 0x28, 0xbf, 0x5b, 0x50, 0xab, 0xbe, 0x8d, 0x6c, 0xb9, 0x3e,
  0x37, 0x92, 0xba, 0xbe, 0x67, 0xb7, 0x16, 0xbe, 0xdd, 0x11, 0xa9, 0xbe,
  0x4b, 0x7e, 0x4a, 0xbf, 0xab, 0x13, 0x42, 0x3f, 0xed, 0x27, 0x1f, 0xbf,
  0xc1, 0x2b, 0x62, 0xbe, 0xae, 0x0b, 0x48, 0xbf, 0xbe, 0xbd, 0x28, 0xbf,
  0x55, 0xf5, 0xda, 0x3d, 0x71, 0x81, 0x04, 0x3f, 0x81, 0x99, 0xdc, 0xbe,
  0x26, 0x22, 0xa7, 0x3e, 0xfe, 0x4d, 0xd5, 0xbe, 0xfa, 0xbd, 0xba, 0xbe,
  0x82, 0x63, 0xcc, 0xbf, 0xc1, 0xed, 0x9d, 0x3e, 0xec, 0xb3, 0x1e, 0x3f,
  0xd0, 0xf7, 0xa0, 0x3f, 0x91, 0x28, 0x80, 0xbf, 0xe6, 0xb0, 0xc4, 0x3d,
  0x01, 0x37, 0x7e, 0x3e, 0xc3, 0xb9, 0x89, 0x3c, 0xcb, 0xef, 0xd8, 0xbd,
  0x19, 0x2f, 0x27, 0xbf, 0x34, 0xa3, 0x32, 0x3f, 0x8b, 0xd8, 0xec, 0x3e,
  0x01, 0x4d, 0x40, 0x3f, 0x6d, 0xef, 0x8d, 0xbf, 0xc1, 0x26, 0x84, 0x3e,
  0x20, 0x6c, 0x86, 0x3f, 0x1f, 0xf4, 0x81, 0xbe, 0x68, 0xf1, 0x60, 0xbf,
  0x15, 0xd4, 0x73, 0xbd, 0xdf, 0xc7, 0xa2, 0x3e, 0xfc, 0xc1, 0x02, 0xbf,
  0x8c, 0x20, 0x46, 0x3e, 0x76, 0x02, 0x2e, 0xbd, 0xb4, 0x44, 0x6e, 0x3f,
  0x51, 0xda, 0x97, 0x3e, 0xbd, 0x7d, 0xb2, 0x3e, 0xa3, 0x1f, 0x8e, 0x3e,
  0xd2, 0x30, 0x3c, 0x3f, 0x5b, 0x7e, 0x63, 0xbf, 0x65, 0xf6, 0x5e, 0x3e,
  0xe0, 0x0d, 0x81, 0xbe, 0xe2, 0x13, 0x2a, 0x3e, 0x8b, 0x18, 0x9e, 0xbf,
  0xb5, 0x32, 0x08, 0x3f, 0xc5, 0xdd, 0xed, 0x3e, 0xf2, 0x47, 0x0b, 0x3e,
  0xfa, 0x94, 0xca, 0x3d, 0x97, 0x50, 0x09, 0x3e, 0x2b, 0xb9, 0x1e, 0xbe,
  0x29, 0xed, 0xae, 0x3e, 0x8c, 0x9b, 0xe6, 0xbe, 0x6b, 0xe7, 0x27, 0xbe,
  0x28, 0x83, 0xc2, 0x3e, 0x27, 0x5e, 0x55, 0x3e, 0xec, 0xfb, 0x2e, 0xbf,
  0xc3, 0x9a, 0xd8, 0xbe, 0x9e, 0xf7, 0xff, 0xff, 0x04, 0x00, 0x00, 0x00,
  0x00, 0x01, 0x00, 0x00, 0x58, 0xf0, 0x15, 0x3f, 0x77, 0x78, 0x9d, 0xbe,
  0x3e, 0x79, 0x24, 0xbd, 0x82, 0x65, 0x62, 0xbe, 0xf4, 0x10, 0xb4, 0x3d,
  0xc9, 0x4a, 0x8e, 0x3e, 0xb0, 0xc8, 0x0d, 0xbe, 0xae, 0x67, 0xd2, 0xbd,
  0x6d, 0xec, 0xa6, 0x3e, 0xa7, 0x28, 0xfa, 0xbe, 0x81, 0x37, 0x05, 0xbf,
  0x1b, 0x5b, 0x0c, 0x3e, 0x8c, 0xb8, 0xd1, 0x3e, 0x5d, 0x28, 0x06, 0x3f,
  0x05, 0x21, 0xbe, 0xbd, 0x7f, 0xfb, 0x95, 0x3d, 0xb0, 0x6f, 0xab, 0x3e,
  0xd1, 0x9f, 0xe7, 0x3e, 0x77, 0xc0, 0x33, 0xbe, 0xf3, 0xf1, 0x9e, 0xbd,
  0xe2, 0xeb, 0xf5, 0xbe, 0x93, 0x8a, 0xd4, 0x3e, 0xe2, 0x80, 0x92, 0xbd,
  0xd0, 0x43, 0x96, 0x3d, 0xae, 0x85, 0xda, 0x3c, 0xc7, 0x09, 0xc6, 0x3e,
  0xcc, 0x72, 0x02, 0xbe, 0xb9, 0x6d, 0xe0, 0x3e, 0x7c, 0xa4, 0xa0, 0x3e,
  0x7a, 0x3b, 0x05, 0x3f, 0xe8, 0xba, 0xa3, 0x3e, 0x73, 0xea, 0x7c, 0xbe,
  0x7f, 0x48, 0xae, 0x3e, 0xf7, 0x2d, 0xb2, 0xbe, 0xd5, 0x88, 0x4b, 0x3d,
  0xbc, 0x6c, 0x2c, 0xbe, 0xf2, 0xc8, 0xd9, 0xbe, 0x1b, 0x74, 0xe5, 0x3e,
  0x7a, 0x10, 0x9b, 0x3e, 0xd7, 0x31, 0x61, 0xbe, 0x57, 0x2b, 0x69, 0x3e,
  0x60, 0x57, 0xa4, 0x3e, 0x2c, 0x7a, 0xb9, 0x3d, 0xbc, 0x6c, 0xfa, 0xbe,
  0x6c, 0x54, 0x8c, 0xbe, 0xe7, 0xda, 0x57, 0x3e, 0x82, 0x60, 0x24, 0x3d,
  0xd1, 0xa4, 0x0a, 0x3d, 0xc7, 0x50, 0x36, 0xbe, 0x27, 0x87, 0xc9, 0xbe,
  0x52, 0x44, 0x60, 0x3d, 0xd4, 0x95, 0x94, 0x3e, 0x2c, 0x99, 0xc2, 0xbe,
  0x6d, 0xf5, 0x81, 0xbd, 0xbe, 0x39, 0x1b, 0x3f, 0xb1, 0xb5, 0xcc, 0xbe,
  0x77, 0xb9, 0x59, 0xbe, 0x72, 0x06, 0x29, 0xbe, 0x9d, 0x8d, 0xc4, 0xbe,
  0x19, 0x37, 0x97, 0x3e, 0x34, 0x50, 0xed, 0x3d, 0xf4, 0xdf, 0x30, 0xbe,
  0x01, 0x59, 0x63, 0xbc, 0xcf, 0x6f, 0x36, 0xbf, 0xaa, 0xf8, 0xff, 0xff,
  0x04, 0x00, 0x00, 0x00, 0x00, 0x01, 0x00, 0x00, 0xac, 0x90, 0xa0, 0xbe,
  0x0b, 0xb8, 0xa5, 0xbe, 0x95, 0x1d, 0x88, 0x3d, 0x8f, 0x7b, 0xc4, 0xbe,
  0x21, 0x8f, 0x8c, 0x3e, 0x35, 0xb6, 0xeb, 0x3e, 0x00, 0x0f, 0x2d, 0xbf,
  0xbf, 0xa0, 0xb9, 0xbc, 0x73, 0x63, 0xf7, 0x3e, 0x2c, 0x69, 0xd7, 0x3d,
  0x43, 0x1b, 0x77, 0xbe, 0x4b, 0xcc, 0x99, 0xbe, 0xec, 0x31, 0xe2, 0xbe,
  0x3d, 0x8d, 0x08, 0x3d, 0xac, 0xe8, 0x09, 0xbf, 0x34, 0xad, 0x13, 0x3f,
  0x9a, 0x99, 0xa2, 0x3b, 0x88, 0x7a, 0xf4, 0xbc, 0x34, 0x91, 0x0c, 0xbf,
  0xc3, 0x59, 0x12, 0xbc, 0x52, 0x07, 0x13, 0x3e, 0x29, 0x44, 0x9c, 0x3e,
  0x26, 0x58, 0x48, 0xbe, 0x16, 0x9f, 0x1d, 0x3f, 0x65, 0x00, 0xb9, 0x3d,
  0x53, 0x82, 0x0c, 0xbd, 0x70, 0xac, 0xab, 0x3e, 0xa2, 0x3d, 0x31, 0xbe,
  0xfb, 0x28, 0xdd, 0x3e, 0x69, 0xa7, 0xc0, 0x3e, 0x4e, 0xa9, 0x13, 0x3e,
  0xfe, 0xe4, 0xee, 0x3e, 0x5a, 0x82, 0x10, 0x3e, 0xee, 0x73, 0xda, 0x3d,
  0x8a, 0x33, 0xb0, 0xbd, 0x80, 0x9a, 0x5c, 0xbe, 0x41, 0xec, 0xaf, 0xbd,
  0xea, 0x46, 0xe4, 0xbe, 0x31, 0x56, 0xeb, 0x3e, 0x31, 0x4b, 0x0e, 0x3e,
  0xc9, 0xc5, 0xcf, 0x3e, 0x9d, 0x6d, 0xa1, 0xbd, 0x58, 0x89, 0x10, 0xbb,
  0xd3, 0xcd, 0x47, 0x3d, 0x3f, 0x49, 0x0d, 0x3f, 0x9f, 0xc3, 0xde, 0xbd,
  0x7f, 0xa6, 0xf0, 0xbe, 0x7d, 0xa6, 0x7a, 0xbe, 0x0e, 0x0c, 0xfd, 0xbd,
  0x11, 0xd7, 0x63, 0xbe, 0xac, 0xff, 0x75, 0xbd, 0x2f, 0xa1, 0xf3, 0x3e,
  0x39, 0x19, 0x96, 0x3c, 0xa1, 0x1b, 0x3e, 0x3f, 0x5c, 0xe5, 0x28, 0xbe,
  0x6c, 0xbc, 0x55, 0x3e, 0x60, 0xe9, 0x47, 0xbe, 0x11, 0xc7, 0x13, 0x3f,
  0x8e, 0xf0, 0x09, 0xbe, 0xcb, 0x44, 0x8a, 0x3e, 0x9e, 0xb8, 0x17, 0x3f,
  0xc6, 0xd1, 0x14, 0xbe, 0x70, 0xb0, 0x9a, 0xbe, 0x09, 0x67, 0x76, 0x3e,
  0xb6, 0xf9, 0xff, 0xff, 0x04, 0x00, 0x00, 0x00, 0x00, 0x01, 0x00, 0x00,
  0x80, 0x79, 0xd1, 0xbe, 0xda, 0xc3, 0xf7, 0xbe, 0x16, 0x3d, 0x5e, 0xbf,
  0x8d, 0x15, 0x2b, 0xbe, 0x58, 0x6d, 0xc6, 0x3e, 0xfa, 0x90, 0x93, 0xbd,
  0x2c, 0x8a, 0xf0, 0xbe, 0xca, 0xfd, 0xac, 0xbe, 0x53, 0xfa, 0xf5, 0xbd,
  0xd0, 0xcd, 0x10, 0x3f, 0x78, 0xdd, 0x9f, 0x3d, 0x5a, 0x48, 0xe6, 0x3d,
  0x6f, 0x73, 0xb9, 0xbe, 0xa5, 0x83, 0x70, 0xbd, 0x8a, 0xd1, 0x78, 0xbe,
  0x85, 0x06, 0x8a, 0x3e, 0xc5, 0x95, 0xbf, 0x3d, 0xed, 0xbe, 0x36, 0xbe,
  0xe6, 0xe1, 0xd6, 0x3e, 0x42, 0x47, 0xa1, 0x3e, 0xe8, 0x59, 0x03, 0x3f,
  0xc6, 0xd0, 0x2e, 0x3e, 0xed, 0x65, 0xc1, 0xbe, 0xc9, 0x94, 0xb7, 0x3e,
  0x54, 0xfb, 0x52, 0xbe, 0xcb, 0x37, 0xf6, 0x3d, 0xb6, 0x33, 0x7e, 0xbe,
  0x50, 0x9d, 0x49, 0xbf, 0xb3, 0xba, 0x82, 0x3e, 0xf4, 0xab, 0x8d, 0x3e,
  0x65, 0xf0, 0x96, 0x3e, 0xee, 0xc0, 0x91, 0x3e, 0x9f, 0x99, 0x9d, 0xbd,
  0x74, 0xed, 0xb1, 0x3c, 0x85, 0x86, 0x7f, 0xbd, 0x66, 0x9f, 0xef, 0xbd,
  0xd1, 0x56, 0x8a, 0x3d, 0x79, 0xdb, 0xf1, 0xbd, 0xcc, 0x7b, 0x81, 0x3e,
  0x43, 0xc4, 0x81, 0xbc, 0xc4, 0xcf, 0x03, 0x3f, 0x1c, 0x32, 0xc6, 0xbd,
  0xa4, 0x86, 0x74, 0xbe, 0xda, 0x72, 0xa6, 0x3c, 0x24, 0x75, 0xa7, 0xbe,
  0x98, 0x03, 0x95, 0x3e, 0xba, 0x10, 0xef, 0x3c, 0x18, 0x48, 0x20, 0x3f,
  0x65, 0xce, 0x43, 0xbd, 0xcb, 0x75, 0x30, 0x3f, 0xc7, 0x20, 0x81, 0xbe,
  0xa8, 0x24, 0x08, 0x3e, 0xef, 0x87, 0x88, 0xbe, 0xcd, 0x13, 0xb6, 0x3e,
  0x47, 0x0b, 0xac, 0x3e, 0x27, 0x93, 0x8f, 0x3e, 0x1c, 0x9c, 0x4f, 0x3d,
  0x19, 0x56, 0x40, 0x3e, 0x8c, 0x83, 0xfe, 0xbd, 0x8f, 0xca, 0x09, 0xbe,
  0x58, 0xb8, 0xb8, 0xbd, 0x28, 0x5b, 0x7e, 0x3e, 0x35, 0xb8, 0xa0, 0xbe,
  0x82, 0x2a, 0x02, 0xbe, 0xc2, 0xfa, 0xff, 0xff, 0x04, 0x00, 0x00, 0x00,
  0x20, 0x00, 0x00, 0x00, 0x0b, 0xec, 0x06, 0x3f, 0x33, 0x5f, 0x04, 0x3f,
  0xca, 0xb1, 0x18, 0x3f, 0xf0, 0xc0, 0xb0, 0x3f, 0x16, 0xc0, 0xa4, 0x3f,
  0xa4, 0x85, 0x4e, 0x3f, 0x8b, 0xd8, 0x23, 0x3f, 0x61, 0xd9, 0x57, 0x3f,
  0xee, 0xfa, 0xff, 0xff, 0x04, 0x00, 0x00, 0x00, 0x20, 0x00, 0x00, 0x00,
  0xae, 0xa3, 0xda, 0x3d, 0xeb, 0x43, 0x53, 0xbc, 0xa9, 0xa7, 0x53, 0xbd,
  0x40, 0x03, 0x07, 0xbd, 0x4e, 0xa8, 0x49, 0x3d, 0x3b, 0xca, 0x8d, 0xbd,
  0x03, 0x19, 0x13, 0xbb, 0xe8, 0x31, 0x77, 0x3d, 0x1a, 0xfb, 0xff, 0xff,
  0x04, 0x00, 0x00, 0x00, 0x20, 0x00, 0x00, 0x00, 0x5b, 0xcb, 0x9c, 0x3f,
  0xde, 0x4b, 0x6d, 0x3f, 0x81, 0xc3, 0x6a, 0x3f, 0x70, 0x58, 0x83, 0x3f,
  0x19, 0xa9, 0x94, 0x3f, 0x85, 0x35, 0x8f, 0x3f, 0x1a, 0xf4, 0x92, 0x3f,
  0xa8, 0x7f, 0x96, 0x3f, 0x46, 0xfb, 0xff, 0xff, 0x04, 0x00, 0x00, 0x00,
  0x20, 0x00, 0x00, 0x00, 0x4f, 0x7a, 0x18, 0xbd, 0xf4, 0x97, 0xbf, 0x3e,
  0xbe, 0x57, 0x60, 0xbe, 0xef, 0x7f, 0xc5, 0x3e, 0x7a, 0xa2, 0xc9, 0x3e,
  0xc7, 0x03, 0x7e, 0x3e, 0x28, 0xcc, 0xf2, 0x3e, 0xb2, 0x2e, 0xf1, 0x3d,
  0x72, 0xfb, 0xff, 0xff, 0x04, 0x00, 0x00, 0x00, 0x00, 0x01, 0x00, 0x00,
  0xe3, 0xa2, 0xca, 0x3e, 0xfd, 0xd7, 0x1d, 0xbf, 0x3b, 0xec, 0xd9, 0x3e,
  0x1c, 0x9d, 0x2a, 0xbf, 0x0d, 0x4e, 0xa2, 0x3c, 0x9e, 0x09, 0x16, 0x3e,
  0xba, 0x57, 0xce, 0xbd, 0x4f, 0xa2, 0xd3, 0xbe, 0x12, 0xdf, 0x81, 0xbe,
  0x77, 0x3e, 0x6a, 0x3d, 0x6d, 0xd1, 0x0e, 0x3e, 0x81, 0x06, 0x6c, 0x3e,
  0x0d, 0xa6, 0xef, 0xbe, 0x78, 0x2d, 0x20, 0x3e, 0x96, 0xb1, 0xf1, 0xbe,
  0x28, 0xa9, 0x8a, 0x3e, 0x12, 0x35, 0x40, 0xbf, 0x0f, 0x9b, 0x85, 0x3f,
  0x05, 0xab, 0xbb, 0x3d, 0x15, 0x5f, 0x3a, 0x3f, 0x4a, 0x88, 0x01, 0xbd,
  0xb3, 0xea, 0x8d, 0x3f, 0x5f, 0x71, 0x96, 0xbf, 0x8e, 0x23, 0xbe, 0x3e,
  0x51, 0x35, 0x8d, 0x3e, 0x4a, 0x5b, 0x60, 0xbe, 0x38, 0x64, 0xf0, 0xbd,
  0x9a, 0x7d, 0x55, 0xbb, 0x87, 0x3b, 0xb0, 0xbc, 0xcf, 0x87, 0xb9, 0xbe,
  0x4e, 0x19, 0xb1, 0xbe, 0x01, 0x84, 0x84, 0x3f, 0x3b, 0xe2, 0x9a, 0x3d,
  0x3b, 0xd6, 0x24, 0xbd, 0x37, 0xfb, 0x2b, 0xbf, 0x0c, 0x5f, 0xdb, 0xbe,
  0x1c, 0x3b, 0x60, 0xbe, 0xc1, 0x37, 0x13, 0x3f, 0xb8, 0xe1, 0x79, 0xbe,
  0xf0, 0x64, 0xce, 0x3e, 0x51, 0x36, 0xcb, 0xbd, 0x08, 0xa6, 0xca, 0x3e,
  0x2d, 0x2b, 0x50, 0x3d, 0x89, 0x33, 0xff, 0x3e, 0x1d, 0x6c, 0x86, 0xbd,
  0x38, 0xc6, 0x15, 0xbf, 0x20, 0xdc, 0x80, 0xbe, 0xc0, 0x86, 0x55, 0x3e,
  0xde, 0xcf, 0xd4, 0x3e, 0x23, 0x38, 0x22, 0xbe, 0x19, 0x86, 0x7a, 0xbe,
  0xb4, 0x53, 0xec, 0x3e, 0x40, 0x9e, 0xd6, 0xbd, 0xb0, 0xe9, 0x4c, 0xbf,
  0x65, 0x02, 0x1f, 0xbe, 0x47, 0x45, 0xac, 0x3d, 0x5c, 0xb0, 0x87, 0x3e,
  0x76, 0x88, 0xda, 0x3c, 0x65, 0xb5, 0x09, 0xbf, 0xe5, 0x7a, 0xbf, 0xbe,
  0x46, 0x93, 0x23, 0xbe, 0xe5, 0x44, 0x36, 0x3f, 0x88, 0x1b, 0x2a, 0xbf,
  0x2b, 0x08, 0x42, 0xbe, 0x7e, 0xfc, 0xff, 0xff, 0x04, 0x00, 0x00, 0x00,
  0x00, 0x01, 0x00, 0x00, 0xd8, 0x7b, 0xa5, 0x3d, 0x92, 0xac, 0x57, 0xbe,
  0x6f, 0xe5, 0x94, 0xbe, 0x1d, 0x03, 0x38, 0xbd, 0x23, 0xb0, 0x2b, 0x3e,
  0xda, 0x05, 0x95, 0x3d, 0x55, 0xce, 0xa9, 0x3e, 0x36, 0x8b, 0x80, 0xbe,
  0x7d, 0xa1, 0xbb, 0xbd, 0x35, 0xca, 0x0d, 0x3e, 0xeb, 0x74, 0x0d, 0xbe,
  0x7d, 0x66, 0x7b, 0xbe, 0x16, 0x9d, 0x05, 0xbe, 0xbe, 0xe3, 0x10, 0xbc,
  0x9b, 0x76, 0x47, 0x3e, 0x2f, 0xff, 0x7f, 0xbc, 0xdb, 0x74, 0xf3, 0x3e,
  0x4d, 0x01, 0xe1, 0xbd, 0xc3, 0xad, 0x4c, 0xbd, 0xce, 0x3d, 0x96, 0xbd,
  0x2e, 0x8f, 0x4b, 0x3e, 0xcc, 0x6b, 0xd9, 0xbd, 0xcc, 0x34, 0x5a, 0xbe,
  0x18, 0x49, 0x9c, 0xbe, 0xa4, 0xd2, 0x9a, 0x3e, 0x8f, 0x1d, 0xe7, 0xbd,
  0x70, 0x98, 0x05, 0xbe, 0x50, 0xa5, 0x1d, 0x3e, 0x7d, 0x45, 0x2f, 0xbb,
  0xb3, 0xde, 0x27, 0xbe, 0xe5, 0xc9, 0x84, 0x3e, 0x71, 0x5a, 0xff, 0xbb,
  0x62, 0xa6, 0x05, 0xbe, 0xbe, 0xe0, 0x9b, 0xbd, 0x4d, 0x68, 0x8c, 0xbe,
  0x2d, 0xf1, 0x1e, 0xbe, 0xf8, 0x43, 0xab, 0x3d, 0x6e, 0xf8, 0x79, 0xbe,
  0x77, 0xb7, 0x04, 0x3e, 0x70, 0xe7, 0x72, 0x3c, 0x08, 0xbc, 0x9f, 0xbe,
  0x02, 0xfc, 0x04, 0x3e, 0xad, 0xbd, 0x87, 0xbe, 0xe9, 0xcb, 0x05, 0xbe,
  0x60, 0x1c, 0x9e, 0xbe, 0x7d, 0xcf, 0x3d, 0x3e, 0xc0, 0x22, 0xe4, 0xbd,
  0x55, 0x6a, 0x6f, 0xbe, 0x38, 0x31, 0xcc, 0x3c, 0x85, 0x50, 0x75, 0xbe,
  0x45, 0x8d, 0xdf, 0x3e, 0xa5, 0x90, 0x2f, 0xbe, 0xe5, 0x88, 0x13, 0xbe,
  0xf0, 0x28, 0xa4, 0xbb, 0x2b, 0x9a, 0xab, 0x3e, 0x63, 0x61, 0x04, 0xbf,
  0xed, 0xf6, 0x61, 0x3e, 0xe8, 0x88, 0x0a, 0xbd, 0x7a, 0x63, 0x12, 0xbe,
  0xbd, 0xda, 0xb2, 0x3c, 0xc6, 0x6f, 0x20, 0xbe, 0xc0, 0xc6, 0x71, 0x3e,
  0xe0, 0xac, 0x88, 0x3d, 0x1a, 0xcc, 0xac, 0x3e, 0x8a, 0xfd, 0xff, 0xff,
  0x04, 0x00, 0x00, 0x00, 0x00, 0x01, 0x00, 0x00, 0x78, 0x1a, 0x95, 0x3e,
  0xdf, 0xba, 0x84, 0xbc, 0xc7, 0xc3, 0x08, 0xbe, 0xb1, 0xaa, 0x2f, 0xbe,
  0x5e, 0x46, 0xff, 0xbe, 0x3c, 0xf9, 0x13, 0x3f, 0xcb, 0xad, 0x4e, 0xbe,
  0x7e, 0x88, 0x49, 0x3e, 0x60, 0xc2, 0x83, 0x3e, 0x26, 0x03, 0x14, 0x3e,
  0xea, 0xad, 0x73, 0xbd, 0xb3, 0xaa, 0x8d, 0xbd, 0x32, 0xe6, 0x4c, 0x3d,
  0xac, 0xfd, 0x8c, 0x3d, 0x03, 0xe2, 0xbf, 0xbd, 0x34, 0xa2, 0x43, 0xbe,
  0xa4, 0x98, 0xae, 0xbe, 0xbd, 0x12, 0xb8, 0x3e, 0x7e, 0xfa, 0xbe, 0x3d,
  0x74, 0xf6, 0x1d, 0x3e, 0xb0, 0xe4, 0x83, 0xbe, 0xda, 0x04, 0x20, 0x3f,
  0x11, 0x10, 0x24, 0xbf, 0x92, 0xd7, 0xba, 0x3e, 0x2b, 0xd0, 0x23, 0xbe,
  0x65, 0xc1, 0x53, 0xbd, 0x0b, 0xd7, 0xb3, 0xbe, 0xe5, 0x08, 0x98, 0x3e,
  0xfe, 0xbe, 0x02, 0xbf, 0xbf, 0x8c, 0x9a, 0x3e, 0xfd, 0x88, 0xe4, 0xbd,
  0x6f, 0xba, 0x6f, 0xbe, 0xef, 0x76, 0xe6, 0x3d, 0x2c, 0x3c, 0x40, 0xbd,
  0x59, 0xbe, 0x05, 0x3e, 0xc8, 0x6a, 0x93, 0xbe, 0x30, 0x6b, 0x8b, 0xbe,
  0xb3, 0x8a, 0xa7, 0x3e, 0x04, 0xcb, 0x8b, 0x3e, 0xe3, 0x98, 0xf3, 0x3d,
  0x3b, 0xc2, 0xf7, 0x3d, 0x03, 0xc3, 0x19, 0x3c, 0x66, 0xec, 0x16, 0xbf,
  0x84, 0x82, 0xfa, 0xbd, 0x08, 0x08, 0x4e, 0x3c, 0xf7, 0x8d, 0xf5, 0xbd,
  0x2b, 0x82, 0xac, 0xbe, 0xb8, 0x93, 0x2c, 0x3e, 0xe7, 0xaa, 0x12, 0x3f,
  0x56, 0x2a, 0x8c, 0x3e, 0x2d, 0xfb, 0x88, 0x3e, 0x61, 0x7e, 0x2f, 0x3e,
  0xca, 0xc4, 0x1e, 0xbe, 0x31, 0xf7, 0x06, 0x3f, 0x70, 0x7c, 0x19, 0xbe,
  0x69, 0xff, 0x14, 0xbf, 0xce, 0x0a, 0x11, 0x3e, 0xe1, 0x4b, 0x1b, 0xbf,
  0x5f, 0x8d, 0x18, 0x3c, 0x13, 0xe7, 0xa3, 0xbe, 0x58, 0xc3, 0x07, 0x3d,
  0x06, 0x7a, 0xde, 0x3e, 0x7c, 0xd1, 0x08, 0xbd, 0xd6, 0x56, 0xea, 0x3b,
  0x96, 0xfe, 0xff, 0xff, 0x04, 0x00, 0x00, 0x00, 0x00, 0x01, 0x00, 0x00,
  0xeb, 0x35, 0xab, 0x3e, 0x79, 0x5e, 0xad, 0xbe, 0xc2, 0xd8, 0xad, 0x3e,
  0x0d, 0x4d, 0x2c, 0x3e, 0x87, 0xa3, 0xc0, 0xbd, 0x00, 0xdb, 0xa3, 0xbe,
  0xd0, 0x70, 0xa9, 0xbc, 0x72, 0xa4, 0x12, 0x3f, 0xe4, 0x0c, 0xec, 0xbd,
  0xd7, 0x80, 0x28, 0xbe, 0x14, 0x4d, 0xb7, 0xbe, 0x59, 0x5f, 0xef, 0xbd,
  0x1c, 0x38, 0xdc, 0x3b, 0xe3, 0x8d, 0x0d, 0x3e, 0x88, 0xba, 0x0c, 0xbe,
  0x75, 0xdf, 0xb1, 0x3e, 0x8a, 0x95, 0x8a, 0xbe, 0x27, 0x69, 0xd1, 0x3e,
  0x77, 0x12, 0x8d, 0x3e, 0x6a, 0xa0, 0x6d, 0x3e, 0x76, 0xe6, 0xf7, 0xbe,
  0xa7, 0xbc, 0x91, 0x3f, 0x80, 0x84, 0xbb, 0xbe, 0x88, 0xbf, 0xc5, 0xbe,
  0xd0, 0xfc, 0x13, 0xbe, 0xd3, 0x53, 0x10, 0xbe, 0x7f, 0xb3, 0x43, 0xbe,
  0x33, 0x9d, 0xac, 0x3e, 0x5f, 0x1c, 0x31, 0xbe, 0x37, 0xff, 0x17, 0x3e,
  0x46, 0x71, 0xe9, 0xbd, 0x6a, 0xff, 0xb6, 0xbe, 0x2b, 0x64, 0xc6, 0xbe,
  0x16, 0x7f, 0xa4, 0x3e, 0x78, 0x5f, 0x6c, 0xbe, 0x0f, 0xa8, 0x50, 0x3d,
  0xa9, 0xe6, 0x9a, 0xbe, 0x9e, 0xcb, 0x1a, 0x3d, 0x48, 0x68, 0x16, 0xbd,
  0xe4, 0x15, 0xb4, 0x3e, 0x93, 0x48, 0xaa, 0x3e, 0xe9, 0x03, 0xbd, 0xbd,
  0xad, 0xba, 0x1b, 0xbe, 0x1f, 0x11, 0x98, 0xbe, 0x47, 0x1b, 0xae, 0x3e,
  0x04, 0x63, 0xbb, 0xbd, 0x31, 0x39, 0x1f, 0xbe, 0x97, 0x3f, 0x60, 0xbe,
  0xbe, 0xc2, 0x4b, 0x3f, 0xd2, 0xca, 0x1c, 0xbe, 0x92, 0x11, 0xda, 0x3c,
  0x21, 0xd8, 0xb4, 0x3d, 0x1e, 0x2c, 0x6f, 0x3f, 0xdf, 0x32, 0x27, 0xbe,
  0xf2, 0xbf, 0x48, 0x3e, 0x6d, 0xfc, 0x33, 0x3d, 0x22, 0x89, 0xa9, 0xbb,
  0xae, 0x04, 0xcb, 0x3e, 0x7e, 0x6b, 0x82, 0xbe, 0x86, 0x80, 0x9b, 0xbe,
  0x34, 0x08, 0x08, 0xbf, 0x39, 0xf3, 0x0d, 0x3e, 0x7d, 0x2f, 0x97, 0xbe,
  0xb1, 0x39, 0xf6, 0x3d, 0xa2, 0xff, 0xff, 0xff, 0x04, 0x00, 0x00, 0x00,
  0x24, 0x00, 0x00, 0x00, 0x5b, 0x36, 0xae, 0xbe, 0x8e, 0xe6, 0x76, 0x3e,
  0x1f, 0xec, 0xb2, 0x3e, 0xd0, 0xf6, 0xef, 0x3c, 0xb7, 0xfe, 0x42, 0xbc,
  0xeb, 0x37, 0x87, 0x3c, 0xba, 0x41, 0x2c, 0x3e, 0x68, 0x61, 0xeb, 0xbe,
  0x73, 0x3a, 0xa5, 0x3d, 0xd2, 0xff, 0xff, 0xff, 0x04, 0x00, 0x00, 0x00,
  0x20, 0x00, 0x00, 0x00, 0x00, 0x00, 0x00, 0x00, 0x00, 0x00, 0x00, 0x00,
  0x00, 0x00, 0x00, 0x00, 0x00, 0x00, 0x00, 0x00, 0x00, 0x00, 0x00, 0x00,
  0x00, 0x00, 0x00, 0x00, 0x00, 0x00, 0x00, 0x00, 0x00, 0x00, 0x00, 0x00,
  0x00, 0x00, 0x06, 0x00, 0x08, 0x00, 0x04, 0x00, 0x06, 0x00, 0x00, 0x00,
  0x04, 0x00, 0x00, 0x00, 0x0c, 0x00, 0x00, 0x00, 0x01, 0x00, 0x00, 0x00,
  0x01, 0x00, 0x00, 0x00, 0x09, 0x00, 0x00, 0x00, 0x4c, 0xf2, 0xff, 0xff,
  0x50, 0xf2, 0xff, 0xff, 0x0f, 0x00, 0x00, 0x00, 0x4d, 0x4c, 0x49, 0x52,
  0x20, 0x43, 0x6f, 0x6e, 0x76, 0x65, 0x72, 0x74, 0x65, 0x64, 0x2e, 0x00,
  0x01, 0x00, 0x00, 0x00, 0x14, 0x00, 0x00, 0x00, 0x00, 0x00, 0x0e, 0x00,
  0x18, 0x00, 0x14, 0x00, 0x10, 0x00, 0x0c, 0x00, 0x08, 0x00, 0x04, 0x00,
  0x0e, 0x00, 0x00, 0x00, 0x14, 0x00, 0x00, 0x00, 0x1c, 0x00, 0x00, 0x00,
  0x40, 0x02, 0x00, 0x00, 0x44, 0x02, 0x00, 0x00, 0x48, 0x02, 0x00, 0x00,
  0x04, 0x00, 0x00, 0x00, 0x6d, 0x61, 0x69, 0x6e, 0x00, 0x00, 0x00, 0x00,
  0x05, 0x00, 0x00, 0x00, 0x88, 0x01, 0x00, 0x00, 0xd8, 0x00, 0x00, 0x00,
  0x80, 0x00, 0x00, 0x00, 0x38, 0x00, 0x00, 0x00, 0x10, 0x00, 0x00, 0x00,
  0x00, 0x00, 0x0a, 0x00, 0x10, 0x00, 0x0c, 0x00, 0x08, 0x00, 0x04, 0x00,
  0x0a, 0x00, 0x00, 0x00, 0x0c, 0x00, 0x00, 0x00, 0x10, 0x00, 0x00, 0x00,
  0x03, 0x00, 0x00, 0x00, 0x01, 0x00, 0x00, 0x00, 0x27, 0x00, 0x00, 0x00,
  0x02, 0x00, 0x00, 0x00, 0x26, 0x00, 0x00, 0x00, 0x01, 0x00, 0x00, 0x00,
  0xca, 0xff, 0xff, 0xff, 0x14, 0x00, 0x00, 0x00, 0x00, 0x00, 0x00, 0x08,
  0x10, 0x00, 0x00, 0x00, 0x14, 0x00, 0x00, 0x00, 0x02, 0x00, 0x00, 0x00,
  0x04, 0xf3, 0xff, 0xff, 0x01, 0x00, 0x00, 0x00, 0x26, 0x00, 0x00, 0x00,
  0x03, 0x00, 0x00, 0x00, 0x25, 0x00, 0x00, 0x00, 0x1c, 0x00, 0x00, 0x00,
  0x03, 0x00, 0x00, 0x00, 0x00, 0x00, 0x0e, 0x00, 0x1a, 0x00, 0x14, 0x00,
  0x10, 0x00, 0x0c, 0x00, 0x0b, 0x00, 0x04, 0x00, 0x0e, 0x00, 0x00, 0x00,
  0x24, 0x00, 0x00, 0x00, 0x00, 0x00, 0x00, 0x20, 0x2c, 0x00, 0x00, 0x00,
  0x30, 0x00, 0x00, 0x00, 0x01, 0x00, 0x00, 0x00, 0x00, 0x00, 0x0e, 0x00,
  0x10, 0x00, 0x0c, 0x00, 0x08, 0x00, 0x00, 0x00, 0x00, 0x00, 0x04, 0x00,
  0x0e, 0x00, 0x00, 0x00, 0x02, 0x00, 0x00, 0x00, 0x05, 0x00, 0x00, 0x00,
  0x05, 0x00, 0x00, 0x00, 0x01, 0x00, 0x00, 0x00, 0x25, 0x00, 0x00, 0x00,
  0x04, 0x00, 0x00, 0x00, 0x24, 0x00, 0x00, 0x00, 0x1d, 0x00, 0x00, 0x00,
  0x1e, 0x00, 0x00, 0x00, 0x1f, 0x00, 0x00, 0x00, 0x6a, 0xff, 0xff, 0xff,
  0x14, 0x00, 0x00, 0x00, 0x14, 0x00, 0x00, 0x00, 0x00, 0x00, 0x00, 0x47,
  0x18, 0x00, 0x00, 0x00, 0x1c, 0x00, 0x00, 0x00, 0x00, 0x00, 0x00, 0x00,
  0x54, 0xff, 0xff, 0xff, 0x00, 0x00, 0x20, 0x41, 0x00, 0x00, 0x00, 0x04,
  0x01, 0x00, 0x00, 0x00, 0x24, 0x00, 0x00, 0x00, 0x18, 0x00, 0x00, 0x00,
  0x21, 0x00, 0x00, 0x00, 0x0c, 0x00, 0x00, 0x00, 0x0d, 0x00, 0x00, 0x00,
  0x0e, 0x00, 0x00, 0x00, 0x0f, 0x00, 0x00, 0x00, 0x04, 0x00, 0x00, 0x00,
  0x05, 0x00, 0x00, 0x00, 0x06, 0x00, 0x00, 0x00, 0x07, 0x00, 0x00, 0x00,
  0xff, 0xff, 0xff, 0xff, 0xff, 0xff, 0xff, 0xff, 0xff, 0xff, 0xff, 0xff,
  0x08, 0x00, 0x00, 0x00, 0x09, 0x00, 0x00, 0x00, 0x0a, 0x00, 0x00, 0x00,
  0x0b, 0x00, 0x00, 0x00, 0xff, 0xff, 0xff, 0xff, 0xff, 0xff, 0xff, 0xff,
  0x22, 0x00, 0x00, 0x00, 0x23, 0x00, 0x00, 0x00, 0xff, 0xff, 0xff, 0xff,
  0xff, 0xff, 0xff, 0xff, 0xff, 0xff, 0xff, 0xff, 0xff, 0xff, 0xff, 0xff,
  0x00, 0x00, 0x16, 0x00, 0x18, 0x00, 0x00, 0x00, 0x14, 0x00, 0x10, 0x00,
  0x0f, 0x00, 0x08, 0x00, 0x00, 0x00, 0x00, 0x00, 0x00, 0x00, 0x04, 0x00,
  0x16, 0x00, 0x00, 0x00, 0x14, 0x00, 0x00, 0x00, 0x1c, 0x00, 0x00, 0x00,
  0x00, 0x00, 0x00, 0x47, 0x20, 0x00, 0x00, 0x00, 0x24, 0x00, 0x00, 0x00,
  0x00, 0x00, 0x00, 0x00, 0x08, 0x00, 0x0c, 0x00, 0x0b, 0x00, 0x04, 0x00,
  0x08, 0x00, 0x00, 0x00, 0x00, 0x00, 0x20, 0x41, 0x00, 0x00, 0x00, 0x04,
  0x01, 0x00, 0x00, 0x00, 0x21, 0x00, 0x00, 0x00, 0x18, 0x00, 0x00, 0x00,
  0x00, 0x00, 0x00, 0x00, 0x18, 0x00, 0x00, 0x00, 0x19, 0x00, 0x00, 0x00,
  0x1a, 0x00, 0x00, 0x00, 0x1b, 0x00, 0x00, 0x00, 0x10, 0x00, 0x00, 0x00,
  0x11, 0x00, 0x00, 0x00, 0x12, 0x00, 0x00, 0x00, 0x13, 0x00, 0x00, 0x00,
  0xff, 0xff, 0xff, 0xff, 0xff, 0xff, 0xff, 0xff, 0xff, 0xff, 0xff, 0xff,
  0x14, 0x00, 0x00, 0x00, 0x15, 0x00, 0x00, 0x00, 0x16, 0x00, 0x00, 0x00,
  0x17, 0x00, 0x00, 0x00, 0xff, 0xff, 0xff, 0xff, 0xff, 0xff, 0xff, 0xff,
  0x02, 0x00, 0x00, 0x00, 0x20, 0x00, 0x00, 0x00, 0xff, 0xff, 0xff, 0xff,
  0xff, 0xff, 0xff, 0xff, 0xff, 0xff, 0xff, 0xff, 0xff, 0xff, 0xff, 0xff,
  0x01, 0x00, 0x00, 0x00, 0x27, 0x00, 0x00, 0x00, 0x01, 0x00, 0x00, 0x00,
  0x00, 0x00, 0x00, 0x00, 0x28, 0x00, 0x00, 0x00, 0x08, 0x0b, 0x00, 0x00,
  0x98, 0x0a, 0x00, 0x00, 0x38, 0x0a, 0x00, 0x00, 0xc4, 0x09, 0x00, 0x00,
  0x84, 0x09, 0x00, 0x00, 0x44, 0x09, 0x00, 0x00, 0x04, 0x09, 0x00, 0x00,
  0xc4, 0x08, 0x00, 0x00, 0x88, 0x08, 0x00, 0x00, 0x4c, 0x08, 0x00, 0x00,
  0x10, 0x08, 0x00, 0x00, 0xd4, 0x07, 0x00, 0x00, 0x94, 0x07, 0x00, 0x00,
  0x54, 0x07, 0x00, 0x00, 0x10, 0x07, 0x00, 0x00, 0xcc, 0x06, 0x00, 0x00,
  0x88, 0x06, 0x00, 0x00, 0x44, 0x06, 0x00, 0x00, 0x00, 0x06, 0x00, 0x00,
  0xbc, 0x05, 0x00, 0x00, 0x7c, 0x05, 0x00, 0x00, 0x3c, 0x05, 0x00, 0x00,
  0xfc, 0x04, 0x00, 0x00, 0xbc, 0x04, 0x00, 0x00, 0x78, 0x04, 0x00, 0x00,
  0x34, 0x04, 0x00, 0x00, 0xf0, 0x03, 0x00, 0x00, 0xac, 0x03, 0x00, 0x00,
  0x5c, 0x03, 0x00, 0x00, 0x18, 0x03, 0x00, 0x00, 0xd4, 0x02, 0x00, 0x00,
  0x90, 0x02, 0x00, 0x00, 0x48, 0x02, 0x00, 0x00, 0xf0, 0x01, 0x00, 0x00,
  0xa8, 0x01, 0x00, 0x00, 0x60, 0x01, 0x00, 0x00, 0x08, 0x01, 0x00, 0x00,
  0xc4, 0x00, 0x00, 0x00, 0x54, 0x00, 0x00, 0x00, 0x04, 0x00, 0x00, 0x00,
  0xae, 0xf5, 0xff, 0xff, 0x00, 0x00, 0x00, 0x01, 0x10, 0x00, 0x00, 0x00,
  0x10, 0x00, 0x00, 0x00, 0x28, 0x00, 0x00, 0x00, 0x28, 0x00, 0x00, 0x00,
  0x98, 0xf5, 0xff, 0xff, 0x19, 0x00, 0x00, 0x00, 0x53, 0x74, 0x61, 0x74,
  0x65, 0x66, 0x75, 0x6c, 0x50, 0x61, 0x72, 0x74, 0x69, 0x74, 0x69, 0x6f,
  0x6e, 0x65, 0x64, 0x43, 0x61, 0x6c, 0x6c, 0x3a, 0x30, 0x00, 0x00, 0x00,
  0x03, 0x00, 0x00, 0x00, 0x01, 0x00, 0x00, 0x00, 0x01, 0x00, 0x00, 0x00,
  0x09, 0x00, 0x00, 0x00, 0xfa, 0xf5, 0xff, 0xff, 0x00, 0x00, 0x00, 0x01,
  0x10, 0x00, 0x00, 0x00, 0x10, 0x00, 0x00, 0x00, 0x27, 0x00, 0x00, 0x00,
  0x4c, 0x00, 0x00, 0x00, 0xe4, 0xf5, 0xff, 0xff, 0x3c, 0x00, 0x00, 0x00,
  0x73, 0x65, 0x71, 0x75, 0x65, 0x6e, 0x74, 0x69, 0x61, 0x6c, 0x5f, 0x31,
  0x30, 0x2f, 0x64, 0x65, 0x6e, 0x73, 0x65, 0x5f, 0x31, 0x30, 0x2f, 0x4d,
  0x61, 0x74, 0x4d, 0x75, 0x6c, 0x3b, 0x73, 0x65, 0x71, 0x75, 0x65, 0x6e,
  0x74, 0x69, 0x61, 0x6c, 0x5f, 0x31, 0x30, 0x2f, 0x64, 0x65, 0x6e, 0x73,
  0x65, 0x5f, 0x31, 0x30, 0x2f, 0x42, 0x69, 0x61, 0x73, 0x41, 0x64, 0x64,
  0x00, 0x00, 0x00, 0x00, 0x02, 0x00, 0x00, 0x00, 0x01, 0x00, 0x00, 0x00,
  0x09, 0x00, 0x00, 0x00, 0x66, 0xf6, 0xff, 0xff, 0x00, 0x00, 0x00, 0x01,
  0x10, 0x00, 0x00, 0x00, 0x10, 0x00, 0x00, 0x00, 0x26, 0x00, 0x00, 0x00,
  0x20, 0x00, 0x00, 0x00, 0x50, 0xf6, 0xff, 0xff, 0x11, 0x00, 0x00, 0x00,
  0x74, 0x66, 0x6c, 0x2e, 0x73, 0x74, 0x72, 0x69, 0x64, 0x65, 0x64, 0x5f,
  0x73, 0x6c, 0x69, 0x63, 0x65, 0x00, 0x00, 0x00, 0x02, 0x00, 0x00, 0x00,
  0x01, 0x00, 0x00, 0x00, 0x08, 0x00, 0x00, 0x00, 0xa6, 0xf6, 0xff, 0xff,
  0x00, 0x00, 0x00, 0x01, 0x10, 0x00, 0x00, 0x00, 0x10, 0x00, 0x00, 0x00,
  0x25, 0x00, 0x00, 0x00, 0x30, 0x00, 0x00, 0x00, 0x90, 0xf6, 0xff, 0xff,
  0x21, 0x00, 0x00, 0x00, 0x74, 0x66, 0x6c, 0x2e, 0x75, 0x6e, 0x69, 0x64,
  0x69, 0x72, 0x65, 0x63, 0x74, 0x69, 0x6f, 0x6e, 0x61, 0x6c, 0x5f, 0x73,
  0x65, 0x71, 0x75, 0x65, 0x6e, 0x63, 0x65, 0x5f, 0x6c, 0x73, 0x74, 0x6d,
  0x31, 0x00, 0x00, 0x00, 0x03, 0x00, 0x00, 0x00, 0x01, 0x00, 0x00, 0x00,
  0x2d, 0x00, 0x00, 0x00, 0x08, 0x00, 0x00, 0x00, 0xc2, 0xf7, 0xff, 0xff,
  0x00, 0x00, 0x01, 0x01, 0x0c, 0x00, 0x00, 0x00, 0x0c, 0x00, 0x00, 0x00,
  0x28, 0x00, 0x00, 0x00, 0xe0, 0xf6, 0xff, 0xff, 0x19, 0x00, 0x00, 0x00,
  0x73, 0x65, 0x71, 0x75, 0x65, 0x6e, 0x74, 0x69, 0x61, 0x6c, 0x5f, 0x31,
  0x30, 0x2f, 0x6c, 0x73, 0x74, 0x6d, 0x2f, 0x7a, 0x65, 0x72, 0x6f, 0x73,
  0x33, 0x00, 0x00, 0x00, 0x02, 0x00, 0x00, 0x00, 0x01, 0x00, 0x00, 0x00,
  0x08, 0x00, 0x00, 0x00, 0x06, 0xf8, 0xff, 0xff, 0x00, 0x00, 0x01, 0x01,
  0x0c, 0x00, 0x00, 0x00, 0x0c, 0x00, 0x00, 0x00, 0x28, 0x00, 0x00, 0x00,
  0x24, 0xf7, 0xff, 0xff, 0x19, 0x00, 0x00, 0x00, 0x73, 0x65, 0x71, 0x75,
  0x65, 0x6e, 0x74, 0x69, 0x61, 0x6c, 0x5f, 0x31, 0x30, 0x2f, 0x6c, 0x73,
  0x74, 0x6d, 0x2f, 0x7a, 0x65, 0x72, 0x6f, 0x73, 0x32, 0x00, 0x00, 0x00,
  0x02, 0x00, 0x00, 0x00, 0x01, 0x00, 0x00, 0x00, 0x08, 0x00, 0x00, 0x00,
  0x82, 0xf7, 0xff, 0xff, 0x00, 0x00, 0x00, 0x01, 0x10, 0x00, 0x00, 0x00,
  0x10, 0x00, 0x00, 0x00, 0x22, 0x00, 0x00, 0x00, 0x30, 0x00, 0x00, 0x00,
  0x6c, 0xf7, 0xff, 0xff, 0x20, 0x00, 0x00, 0x00, 0x74, 0x66, 0x6c, 0x2e,
  0x75, 0x6e, 0x69, 0x64, 0x69, 0x72, 0x65, 0x63, 0x74, 0x69, 0x6f, 0x6e,
  0x61, 0x6c, 0x5f, 0x73, 0x65, 0x71, 0x75, 0x65, 0x6e, 0x63, 0x65, 0x5f,
  0x6c, 0x73, 0x74, 0x6d, 0x00, 0x00, 0x00, 0x00, 0x03, 0x00, 0x00, 0x00,
  0x01, 0x00, 0x00, 0x00, 0x2d, 0x00, 0x00, 0x00, 0x08, 0x00, 0x00, 0x00,
  0x9e, 0xf8, 0xff, 0xff, 0x00, 0x00, 0x01, 0x01, 0x0c, 0x00, 0x00, 0x00,
  0x0c, 0x00, 0x00, 0x00, 0x28, 0x00, 0x00, 0x00, 0xbc, 0xf7, 0xff, 0xff,
  0x19, 0x00, 0x00, 0x00, 0x73, 0x65, 0x71, 0x75, 0x65, 0x6e, 0x74, 0x69,
  0x61, 0x6c, 0x5f, 0x31, 0x30, 0x2f, 0x6c, 0x73, 0x74, 0x6d, 0x2f, 0x7a,
  0x65, 0x72, 0x6f, 0x73, 0x31, 0x00, 0x00, 0x00, 0x02, 0x00, 0x00, 0x00,
  0x01, 0x00, 0x00, 0x00, 0x08, 0x00, 0x00, 0x00, 0x86, 0xf8, 0xff, 0xff,
  0x00, 0x00, 0x00, 0x01, 0x14, 0x00, 0x00, 0x00, 0x14, 0x00, 0x00, 0x00,
  0x20, 0x00, 0x00, 0x00, 0x00, 0x00, 0x00, 0x02, 0x20, 0x00, 0x00, 0x00,
  0x08, 0xf8, 0xff, 0xff, 0x10, 0x00, 0x00, 0x00, 0x61, 0x72, 0x69, 0x74,
  0x68, 0x2e, 0x63, 0x6f, 0x6e, 0x73, 0x74, 0x61, 0x6e, 0x74, 0x32, 0x36,
  0x00, 0x00, 0x00, 0x00, 0x01, 0x00, 0x00, 0x00, 0x03, 0x00, 0x00, 0x00,
  0xc6, 0xf8, 0xff, 0xff, 0x00, 0x00, 0x00, 0x01, 0x14, 0x00, 0x00, 0x00,
  0x14, 0x00, 0x00, 0x00, 0x1f, 0x00, 0x00, 0x00, 0x00, 0x00, 0x00, 0x02,
  0x20, 0x00, 0x00, 0x00, 0x48, 0xf8, 0xff, 0xff, 0x10, 0x00, 0x00, 0x00,
  0x61, 0x72, 0x69, 0x74, 0x68, 0x2e, 0x63, 0x6f, 0x6e, 0x73, 0x74, 0x61,
  0x6e, 0x74, 0x32, 0x35, 0x00, 0x00, 0x00, 0x00, 0x01, 0x00, 0x00, 0x00,
  0x03, 0x00, 0x00, 0x00, 0x06, 0xf9, 0xff, 0xff, 0x00, 0x00, 0x00, 0x01,
  0x14, 0x00, 0x00, 0x00, 0x14, 0x00, 0x00, 0x00, 0x1e, 0x00, 0x00, 0x00,
  0x00, 0x00, 0x00, 0x02, 0x20, 0x00, 0x00, 0x00, 0x88, 0xf8, 0xff, 0xff,
  0x10, 0x00, 0x00, 0x00, 0x61, 0x72, 0x69, 0x74, 0x68, 0x2e, 0x63, 0x6f,
  0x6e, 0x73, 0x74, 0x61, 0x6e, 0x74, 0x32, 0x34, 0x00, 0x00, 0x00, 0x00,
  0x01, 0x00, 0x00, 0x00, 0x03, 0x00, 0x00, 0x00, 0xda, 0xf8, 0xff, 0xff,
  0x00, 0x00, 0x00, 0x01, 0x10, 0x00, 0x00, 0x00, 0x10, 0x00, 0x00, 0x00,
  0x1d, 0x00, 0x00, 0x00, 0x2c, 0x00, 0x00, 0x00, 0xc4, 0xf8, 0xff, 0xff,
  0x1d, 0x00, 0x00, 0x00, 0x73, 0x65, 0x71, 0x75, 0x65, 0x6e, 0x74, 0x69,
  0x61, 0x6c, 0x5f, 0x31, 0x30, 0x2f, 0x64, 0x65, 0x6e, 0x73, 0x65, 0x5f,
  0x31, 0x30, 0x2f, 0x4d, 0x61, 0x74, 0x4d, 0x75, 0x6c, 0x00, 0x00, 0x00,
  0x02, 0x00, 0x00, 0x00, 0x09, 0x00, 0x00, 0x00, 0x08, 0x00, 0x00, 0x00,
  0x26, 0xf9, 0xff, 0xff, 0x00, 0x00, 0x00, 0x01, 0x10, 0x00, 0x00, 0x00,
  0x10, 0x00, 0x00, 0x00, 0x1c, 0x00, 0x00, 0x00, 0x20, 0x00, 0x00, 0x00,
  0x10, 0xf9, 0xff, 0xff, 0x10, 0x00, 0x00, 0x00, 0x61, 0x72, 0x69, 0x74,
  0x68, 0x2e, 0x63, 0x6f, 0x6e, 0x73, 0x74, 0x61, 0x6e, 0x74, 0x32, 0x33,
  0x00, 0x00, 0x00, 0x00, 0x02, 0x00, 0x00, 0x00, 0x08, 0x00, 0x00, 0x00,
  0x09, 0x00, 0x00, 0x00, 0x66, 0xf9, 0xff, 0xff, 0x00, 0x00, 0x00, 0x01,
  0x10, 0x00, 0x00, 0x00, 0x10, 0x00, 0x00, 0x00, 0x1b, 0x00, 0x00, 0x00,
  0x20, 0x00, 0x00, 0x00, 0x50, 0xf9, 0xff, 0xff, 0x10, 0x00, 0x00, 0x00,
  0x61, 0x72, 0x69, 0x74, 0x68, 0x2e, 0x63, 0x6f, 0x6e, 0x73, 0x74, 0x61,
  0x6e, 0x74, 0x32, 0x32, 0x00, 0x00, 0x00, 0x00, 0x02, 0x00, 0x00, 0x00,
  0x08, 0x00, 0x00, 0x00, 0x09, 0x00, 0x00, 0x00, 0xa6, 0xf9, 0xff, 0xff,
  0x00, 0x00, 0x00, 0x01, 0x10, 0x00, 0x00, 0x00, 0x10, 0x00, 0x00, 0x00,
  0x1a, 0x00, 0x00, 0x00, 0x20, 0x00, 0x00, 0x00, 0x90, 0xf9, 0xff, 0xff,
  0x10, 0x00, 0x00, 0x00, 0x61, 0x72, 0x69, 0x74, 0x68, 0x2e, 0x63, 0x6f,
  0x6e, 0x73, 0x74, 0x61, 0x6e, 0x74, 0x32, 0x31, 0x00, 0x00, 0x00, 0x00,
  0x02, 0x00, 0x00, 0x00, 0x08, 0x00, 0x00, 0x00, 0x09, 0x00, 0x00, 0x00,
  0xe6, 0xf9, 0xff, 0xff, 0x00, 0x00, 0x00, 0x01, 0x10, 0x00, 0x00, 0x00,
  0x10, 0x00, 0x00, 0x00, 0x19, 0x00, 0x00, 0x00, 0x20, 0x00, 0x00, 0x00,
  0xd0, 0xf9, 0xff, 0xff, 0x10, 0x00, 0x00, 0x00, 0x61, 0x72, 0x69, 0x74,
  0x68, 0x2e, 0x63, 0x6f, 0x6e, 0x73, 0x74, 0x61, 0x6e, 0x74, 0x32, 0x30,
  0x00, 0x00, 0x00, 0x00, 0x02, 0x00, 0x00, 0x00, 0x08, 0x00, 0x00, 0x00,
  0x09, 0x00, 0x00, 0x00, 0x26, 0xfa, 0xff, 0xff, 0x00, 0x00, 0x00, 0x01,
  0x10, 0x00, 0x00, 0x00, 0x10, 0x00, 0x00, 0x00, 0x18, 0x00, 0x00, 0x00,
  0x20, 0x00, 0x00, 0x00, 0x10, 0xfa, 0xff, 0xff, 0x10, 0x00, 0x00, 0x00,
  0x61, 0x72, 0x69, 0x74, 0x68, 0x2e, 0x63, 0x6f, 0x6e, 0x73, 0x74, 0x61,
  0x6e, 0x74, 0x31, 0x39, 0x00, 0x00, 0x00, 0x00, 0x01, 0x00, 0x00, 0x00,
  0x08, 0x00, 0x00, 0x00, 0x62, 0xfa, 0xff, 0xff, 0x00, 0x00, 0x00, 0x01,
  0x10, 0x00, 0x00, 0x00, 0x10, 0x00, 0x00, 0x00, 0x17, 0x00, 0x00, 0x00,
  0x20, 0x00, 0x00, 0x00, 0x4c, 0xfa, 0xff, 0xff, 0x10, 0x00, 0x00, 0x00,
  0x61, 0x72, 0x69, 0x74, 0x68, 0x2e, 0x63, 0x6f, 0x6e, 0x73, 0x74, 0x61,
  0x6e, 0x74, 0x31, 0x38, 0x00, 0x00, 0x00, 0x00, 0x01, 0x00, 0x00, 0x00,
  0x08, 0x00, 0x00, 0x00, 0x9e, 0xfa, 0xff, 0xff, 0x00, 0x00, 0x00, 0x01,
  0x10, 0x00, 0x00, 0x00, 0x10, 0x00, 0x00, 0x00, 0x16, 0x00, 0x00, 0x00,
  0x20, 0x00, 0x00, 0x00, 0x88, 0xfa, 0xff, 0xff, 0x10, 0x00, 0x00, 0x00,
  0x61, 0x72, 0x69, 0x74, 0x68, 0x2e, 0x63, 0x6f, 0x6e, 0x73, 0x74, 0x61,
  0x6e, 0x74, 0x31, 0x37, 0x00, 0x00, 0x00, 0x00, 0x01, 0x00, 0x00, 0x00,
  0x08, 0x00, 0x00, 0x00, 0xda, 0xfa, 0xff, 0xff, 0x00, 0x00, 0x00, 0x01,
  0x10, 0x00, 0x00, 0x00, 0x10, 0x00, 0x00, 0x00, 0x15, 0x00, 0x00, 0x00,
  0x20, 0x00, 0x00, 0x00, 0xc4, 0xfa, 0xff, 0xff, 0x10, 0x00, 0x00, 0x00,
  0x61, 0x72, 0x69, 0x74, 0x68, 0x2e, 0x63, 0x6f, 0x6e, 0x73, 0x74, 0x61,
  0x6e, 0x74, 0x31, 0x36, 0x00, 0x00, 0x00, 0x00, 0x01, 0x00, 0x00, 0x00,
  0x08, 0x00, 0x00, 0x00, 0x16, 0xfb, 0xff, 0xff, 0x00, 0x00, 0x00, 0x01,
  0x10, 0x00, 0x00, 0x00, 0x10, 0x00, 0x00, 0x00, 0x14, 0x00, 0x00, 0x00,
  0x20, 0x00, 0x00, 0x00, 0x00, 0xfb, 0xff, 0xff, 0x10, 0x00, 0x00, 0x00,
  0x61, 0x72, 0x69, 0x74, 0x68, 0x2e, 0x63, 0x6f, 0x6e, 0x73, 0x74, 0x61,
  0x6e, 0x74, 0x31, 0x35, 0x00, 0x00, 0x00, 0x00, 0x02, 0x00, 0x00, 0x00,
  0x08, 0x00, 0x00, 0x00, 0x08, 0x00, 0x00, 0x00, 0x56, 0xfb, 0xff, 0xff,
  0x00, 0x00, 0x00, 0x01, 0x10, 0x00, 0x00, 0x00, 0x10, 0x00, 0x00, 0x00,
  0x13, 0x00, 0x00, 0x00, 0x20, 0x00, 0x00, 0x00, 0x40, 0xfb, 0xff, 0xff,
  0x10, 0x00, 0x00, 0x00, 0x61, 0x72, 0x69, 0x74, 0x68, 0x2e, 0x63, 0x6f,
  0x6e, 0x73, 0x74, 0x61, 0x6e, 0x74, 0x31, 0x34, 0x00, 0x00, 0x00, 0x00,
  0x02, 0x00, 0x00, 0x00, 0x08, 0x00, 0x00, 0x00, 0x08, 0x00, 0x00, 0x00,
  0x96, 0xfb, 0xff, 0xff, 0x00, 0x00, 0x00, 0x01, 0x10, 0x00, 0x00, 0x00,
  0x10, 0x00, 0x00, 0x00, 0x12, 0x00, 0x00, 0x00, 0x20, 0x00, 0x00, 0x00,
  0x80, 0xfb, 0xff, 0xff, 0x10, 0x00, 0x00, 0x00, 0x61, 0x72, 0x69, 0x74,
  0x68, 0x2e, 0x63, 0x6f, 0x6e, 0x73, 0x74, 0x61, 0x6e, 0x74, 0x31, 0x33,
  0x00, 0x00, 0x00, 0x00, 0x02, 0x00, 0x00, 0x00, 0x08, 0x00, 0x00, 0x00,
  0x08, 0x00, 0x00, 0x00, 0xd6, 0xfb, 0xff, 0xff, 0x00, 0x00, 0x00, 0x01,
  0x10, 0x00, 0x00, 0x00, 0x10, 0x00, 0x00, 0x00, 0x11, 0x00, 0x00, 0x00,
  0x20, 0x00, 0x00, 0x00, 0xc0, 0xfb, 0xff, 0xff, 0x10, 0x00, 0x00, 0x00,
  0x61, 0x72, 0x69, 0x74, 0x68, 0x2e, 0x63, 0x6f, 0x6e, 0x73, 0x74, 0x61,
  0x6e, 0x74, 0x31, 0x32, 0x00, 0x00, 0x00, 0x00, 0x02, 0x00, 0x00, 0x00,
  0x08, 0x00, 0x00, 0x00, 0x08, 0x00, 0x00, 0x00, 0x16, 0xfc, 0xff, 0xff,
  0x00, 0x00, 0x00, 0x01, 0x10, 0x00, 0x00, 0x00, 0x10, 0x00, 0x00, 0x00,
  0x10, 0x00, 0x00, 0x00, 0x20, 0x00, 0x00, 0x00, 0x00, 0xfc, 0xff, 0xff,
  0x10, 0x00, 0x00, 0x00, 0x61, 0x72, 0x69, 0x74, 0x68, 0x2e, 0x63, 0x6f,
  0x6e, 0x73, 0x74, 0x61, 0x6e, 0x74, 0x31, 0x31, 0x00, 0x00, 0x00, 0x00,
  0x02, 0x00, 0x00, 0x00, 0x08, 0x00, 0x00, 0x00, 0x08, 0x00, 0x00, 0x00,
  0x56, 0xfc, 0xff, 0xff, 0x00, 0x00, 0x00, 0x01, 0x10, 0x00, 0x00, 0x00,
  0x10, 0x00, 0x00, 0x00, 0x0f, 0x00, 0x00, 0x00, 0x20, 0x00, 0x00, 0x00,
  0x40, 0xfc, 0xff, 0xff, 0x10, 0x00, 0x00, 0x00, 0x61, 0x72, 0x69, 0x74,
  0x68, 0x2e, 0x63, 0x6f, 0x6e, 0x73, 0x74, 0x61, 0x6e, 0x74, 0x31, 0x30,
  0x00, 0x00, 0x00, 0x00, 0x02, 0x00, 0x00, 0x00, 0x08, 0x00, 0x00, 0x00,
  0x08, 0x00, 0x00, 0x00, 0x96, 0xfc, 0xff, 0xff, 0x00, 0x00, 0x00, 0x01,
  0x10, 0x00, 0x00, 0x00, 0x10, 0x00, 0x00, 0x00, 0x0e, 0x00, 0x00, 0x00,
  0x1c, 0x00, 0x00, 0x00, 0x80, 0xfc, 0xff, 0xff, 0x0f, 0x00, 0x00, 0x00,
  0x61, 0x72, 0x69, 0x74, 0x68, 0x2e, 0x63, 0x6f, 0x6e, 0x73, 0x74, 0x61,
  0x6e, 0x74, 0x39, 0x00, 0x02, 0x00, 0x00, 0x00, 0x08, 0x00, 0x00, 0x00,
  0x08, 0x00, 0x00, 0x00, 0xd2, 0xfc, 0xff, 0xff, 0x00, 0x00, 0x00, 0x01,
  0x10, 0x00, 0x00, 0x00, 0x10, 0x00, 0x00, 0x00, 0x0d, 0x00, 0x00, 0x00,
  0x1c, 0x00, 0x00, 0x00, 0xbc, 0xfc, 0xff, 0xff, 0x0f, 0x00, 0x00, 0x00,
  0x61, 0x72, 0x69, 0x74, 0x68, 0x2e, 0x63, 0x6f, 0x6e, 0x73, 0x74, 0x61,
  0x6e, 0x74, 0x38, 0x00, 0x02, 0x00, 0x00, 0x00, 0x08, 0x00, 0x00, 0x00,
  0x08, 0x00, 0x00, 0x00, 0x0e, 0xfd, 0xff, 0xff, 0x00, 0x00, 0x00, 0x01,
  0x10, 0x00, 0x00, 0x00, 0x10, 0x00, 0x00, 0x00, 0x0c, 0x00, 0x00, 0x00,
  0x1c, 0x00, 0x00, 0x00, 0xf8, 0xfc, 0xff, 0xff, 0x0f, 0x00, 0x00, 0x00,
  0x61, 0x72, 0x69, 0x74, 0x68, 0x2e, 0x63, 0x6f, 0x6e, 0x73, 0x74, 0x61,
  0x6e, 0x74, 0x37, 0x00, 0x01, 0x00, 0x00, 0x00, 0x08, 0x00, 0x00, 0x00,
  0x46, 0xfd, 0xff, 0xff, 0x00, 0x00, 0x00, 0x01, 0x10, 0x00, 0x00, 0x00,
  0x10, 0x00, 0x00, 0x00, 0x0b, 0x00, 0x00, 0x00, 0x1c, 0x00, 0x00, 0x00,
  0x30, 0xfd, 0xff, 0xff, 0x0f, 0x00, 0x00, 0x00, 0x61, 0x72, 0x69, 0x74,
  0x68, 0x2e, 0x63, 0x6f, 0x6e, 0x73, 0x74, 0x61, 0x6e, 0x74, 0x36, 0x00,
  0x01, 0x00, 0x00, 0x00, 0x08, 0x00, 0x00, 0x00, 0x7e, 0xfd, 0xff, 0xff,
  0x00, 0x00, 0x00, 0x01, 0x10, 0x00, 0x00, 0x00, 0x10, 0x00, 0x00, 0x00,
  0x0a, 0x00, 0x00, 0x00, 0x1c, 0x00, 0x00, 0x00, 0x68, 0xfd, 0xff, 0xff,
  0x0f, 0x00, 0x00, 0x00, 0x61, 0x72, 0x69, 0x74, 0x68, 0x2e, 0x63, 0x6f,
  0x6e, 0x73, 0x74, 0x61, 0x6e, 0x74, 0x35, 0x00, 0x01, 0x00, 0x00, 0x00,
  0x08, 0x00, 0x00, 0x00, 0xb6, 0xfd, 0xff, 0xff, 0x00, 0x00, 0x00, 0x01,
  0x10, 0x00, 0x00, 0x00, 0x10, 0x00, 0x00, 0x00, 0x09, 0x00, 0x00, 0x00,
  0x1c, 0x00, 0x00, 0x00, 0xa0, 0xfd, 0xff, 0xff, 0x0f, 0x00, 0x00, 0x00,
  0x61, 0x72, 0x69, 0x74, 0x68, 0x2e, 0x63, 0x6f, 0x6e, 0x73, 0x74, 0x61,
  0x6e, 0x74, 0x34, 0x00, 0x01, 0x00, 0x00, 0x00, 0x08, 0x00, 0x00, 0x00,
  0xee, 0xfd, 0xff, 0xff, 0x00, 0x00, 0x00, 0x01, 0x10, 0x00, 0x00, 0x00,
  0x10, 0x00, 0x00, 0x00, 0x08, 0x00, 0x00, 0x00, 0x1c, 0x00, 0x00, 0x00,
  0xd8, 0xfd, 0xff, 0xff, 0x0f, 0x00, 0x00, 0x00, 0x61, 0x72, 0x69, 0x74,
  0x68, 0x2e, 0x63, 0x6f, 0x6e, 0x73, 0x74, 0x61, 0x6e, 0x74, 0x33, 0x00,
  0x02, 0x00, 0x00, 0x00, 0x08, 0x00, 0x00, 0x00, 0x08, 0x00, 0x00, 0x00,
  0x2a, 0xfe, 0xff, 0xff, 0x00, 0x00, 0x00, 0x01, 0x10, 0x00, 0x00, 0x00,
  0x10, 0x00, 0x00, 0x00, 0x07, 0x00, 0x00, 0x00, 0x1c, 0x00, 0x00, 0x00,
  0x14, 0xfe, 0xff, 0xff, 0x0f, 0x00, 0x00, 0x00, 0x61, 0x72, 0x69, 0x74,
  0x68, 0x2e, 0x63, 0x6f, 0x6e, 0x73, 0x74, 0x61, 0x6e, 0x74, 0x32, 0x00,
  0x02, 0x00, 0x00, 0x00, 0x08, 0x00, 0x00, 0x00, 0x08, 0x00, 0x00, 0x00,
  0x66, 0xfe, 0xff, 0xff, 0x00, 0x00, 0x00, 0x01, 0x10, 0x00, 0x00, 0x00,
  0x10, 0x00, 0x00, 0x00, 0x06, 0x00, 0x00, 0x00, 0x1c, 0x00, 0x00, 0x00,
  0x50, 0xfe, 0xff, 0xff, 0x0f, 0x00, 0x00, 0x00, 0x61, 0x72, 0x69, 0x74,
  0x68, 0x2e, 0x63, 0x6f, 0x6e, 0x73, 0x74, 0x61, 0x6e, 0x74, 0x31, 0x00,
  0x02, 0x00, 0x00, 0x00, 0x08, 0x00, 0x00, 0x00, 0x08, 0x00, 0x00, 0x00,
  0xa2, 0xfe, 0xff, 0xff, 0x00, 0x00, 0x00, 0x01, 0x10, 0x00, 0x00, 0x00,
  0x10, 0x00, 0x00, 0x00, 0x05, 0x00, 0x00, 0x00, 0x1c, 0x00, 0x00, 0x00,
  0x8c, 0xfe, 0xff, 0xff, 0x0e, 0x00, 0x00, 0x00, 0x61, 0x72, 0x69, 0x74,
  0x68, 0x2e, 0x63, 0x6f, 0x6e, 0x73, 0x74, 0x61, 0x6e, 0x74, 0x00, 0x00,
  0x02, 0x00, 0x00, 0x00, 0x08, 0x00, 0x00, 0x00, 0x08, 0x00, 0x00, 0x00,
  0xde, 0xfe, 0xff, 0xff, 0x00, 0x00, 0x00, 0x01, 0x10, 0x00, 0x00, 0x00,
  0x10, 0x00, 0x00, 0x00, 0x04, 0x00, 0x00, 0x00, 0x3c, 0x00, 0x00, 0x00,
  0xc8, 0xfe, 0xff, 0xff, 0x2d, 0x00, 0x00, 0x00, 0x73, 0x65, 0x71, 0x75,
  0x65, 0x6e, 0x74, 0x69, 0x61, 0x6c, 0x5f, 0x31, 0x30, 0x2f, 0x64, 0x65,
  0x6e, 0x73, 0x65, 0x5f, 0x31, 0x30, 0x2f, 0x42, 0x69, 0x61, 0x73, 0x41,
  0x64, 0x64, 0x2f, 0x52, 0x65, 0x61, 0x64, 0x56, 0x61, 0x72, 0x69, 0x61,
  0x62, 0x6c, 0x65, 0x4f, 0x70, 0x00, 0x00, 0x00, 0x01, 0x00, 0x00, 0x00,
  0x09, 0x00, 0x00, 0x00, 0x00, 0x00, 0x16, 0x00, 0x14, 0x00, 0x10, 0x00,
  0x00, 0x00, 0x00, 0x00, 0x0c, 0x00, 0x08, 0x00, 0x07, 0x00, 0x00, 0x00,
  0x00, 0x00, 0x06, 0x00, 0x16, 0x00, 0x00, 0x00, 0x00, 0x00, 0x01, 0x01,
  0x0c, 0x00, 0x00, 0x00, 0x0c, 0x00, 0x00, 0x00, 0x28, 0x00, 0x00, 0x00,
  0x34, 0xff, 0xff, 0xff, 0x18, 0x00, 0x00, 0x00, 0x73, 0x65, 0x71, 0x75,
  0x65, 0x6e, 0x74, 0x69, 0x61, 0x6c, 0x5f, 0x31, 0x30, 0x2f, 0x6c, 0x73,
  0x74, 0x6d, 0x2f, 0x7a, 0x65, 0x72, 0x6f, 0x73, 0x00, 0x00, 0x00, 0x00,
  0x02, 0x00, 0x00, 0x00, 0x01, 0x00, 0x00, 0x00, 0x08, 0x00, 0x00, 0x00,
  0x00, 0x00, 0x16, 0x00, 0x1c, 0x00, 0x18, 0x00, 0x17, 0x00, 0x10, 0x00,
  0x0c, 0x00, 0x08, 0x00, 0x00, 0x00, 0x00, 0x00, 0x00, 0x00, 0x07, 0x00,
  0x16, 0x00, 0x00, 0x00, 0x00, 0x00, 0x00, 0x01, 0x14, 0x00, 0x00, 0x00,
  0x14, 0x00, 0x00, 0x00, 0x02, 0x00, 0x00, 0x00, 0x00, 0x00, 0x00, 0x02,
  0x34, 0x00, 0x00, 0x00, 0x98, 0xff, 0xff, 0xff, 0x26, 0x00, 0x00, 0x00,
  0x73, 0x65, 0x71, 0x75, 0x65, 0x6e, 0x74, 0x69, 0x61, 0x6c, 0x5f, 0x31,
  0x30, 0x2f, 0x72, 0x65, 0x73, 0x68, 0x61, 0x70, 0x65, 0x5f, 0x31, 0x30,
  0x2f, 0x52, 0x65, 0x73, 0x68, 0x61, 0x70, 0x65, 0x2f, 0x73, 0x68, 0x61,
  0x70, 0x65, 0x00, 0x00, 0x01, 0x00, 0x00, 0x00, 0x03, 0x00, 0x00, 0x00,
  0x00, 0x00, 0x16, 0x00, 0x18, 0x00, 0x14, 0x00, 0x00, 0x00, 0x10, 0x00,
  0x0c, 0x00, 0x08, 0x00, 0x00, 0x00, 0x00, 0x00, 0x00, 0x00, 0x07, 0x00,
  0x16, 0x00, 0x00, 0x00, 0x00, 0x00, 0x00, 0x01, 0x14, 0x00, 0x00, 0x00,
  0x14, 0x00, 0x00, 0x00, 0x01, 0x00, 0x00, 0x00, 0x24, 0x00, 0x00, 0x00,
  0x04, 0x00, 0x04, 0x00, 0x04, 0x00, 0x00, 0x00, 0x13, 0x00, 0x00, 0x00,
  0x73, 0x65, 0x72, 0x76, 0x69, 0x6e, 0x67, 0x5f, 0x64, 0x65, 0x66, 0x61,
  0x75, 0x6c, 0x74, 0x5f, 0x78, 0x3a, 0x30, 0x00, 0x03, 0x00, 0x00, 0x00,
  0x01, 0x00, 0x00, 0x00, 0x2d, 0x00, 0x00, 0x00, 0x09, 0x00, 0x00, 0x00,
  0x04, 0x00, 0x00, 0x00, 0x40, 0x00, 0x00, 0x00, 0x24, 0x00, 0x00, 0x00,
  0x14, 0x00, 0x00, 0x00, 0x04, 0x00, 0x00, 0x00, 0xdc, 0xff, 0xff, 0xff,
  0x16, 0x00, 0x00, 0x00, 0x00, 0x00, 0x00, 0x16, 0xe8, 0xff, 0xff, 0xff,
  0x09, 0x00, 0x00, 0x00, 0x00, 0x00, 0x00, 0x09, 0xf4, 0xff, 0xff, 0xff,
  0x2d, 0x00, 0x00, 0x00, 0x00, 0x00, 0x00, 0x2d, 0x0c, 0x00, 0x0c, 0x00,
  0x0b, 0x00, 0x00, 0x00, 0x00, 0x00, 0x04, 0x00, 0x0c, 0x00, 0x00, 0x00,
  0x2c, 0x00, 0x00, 0x00, 0x00, 0x00, 0x00, 0x2c
};
unsigned int _tf_models_lstm_v1_lstm_v1_tflite_len = 9608;

// Accelerometer X-axis
const float ACCX_MEAN = 9.235880f;    
const float ACCX_STD = 1.516386f;    

// Accelerometer Y-axis
const float ACCY_MEAN = -0.682526f;    
const float ACCY_STD = 3.083149f;      

// Accelerometer Z-axis
const float ACCZ_MEAN = 0.4874396f;    
const float ACCZ_STD = 0.234757f;      

// Gyroscope X-axis
const float GYROX_MEAN = 0.344743f;  
const float GYROX_STD = 28.02007f;    

// Gyroscope Y-axis
const float GYROY_MEAN = 0.666154f; 
const float GYROY_STD = 8.086139f;  

// Gyroscope Z-axis
const float GYROZ_MEAN = 0.011609f; 
const float GYROZ_STD = 26.38441f;      

// Magnetometer X-axis
const float MAGX_MEAN = -33.35714f;  
const float MAGX_STD = 5.843046f;    

// Magnetometer Y-axis
const float MAGY_MEAN = 19.60439f;  
const float MAGY_STD = 19.29037f;    

// Magnetometer Z-axis
const float MAGZ_MEAN = -2.507685f;  
const float MAGZ_STD = 31.47144f;
