#include "model.h"

alignas(16) const char g_model[] = {
  0x1c, 0x00, 0x00, 0x00, 0x54, 0x46, 0x4c, 0x33, 0x14, 0x00, 0x20, 0x00,
  0x1c, 0x00, 0x18, 0x00, 0x14, 0x00, 0x10, 0x00, 0x0c, 0x00, 0x00, 0x00,
  0x08, 0x00, 0x04, 0x00, 0x14, 0x00, 0x00, 0x00, 0x1c, 0x00, 0x00, 0x00,
  0x8c, 0x00, 0x00, 0x00, 0xe4, 0x00, 0x00, 0x00, 0x88, 0x1b, 0x00, 0x00,
  0x98, 0x1b, 0x00, 0x00, 0xe8, 0x2c, 0x00, 0x00, 0x03, 0x00, 0x00, 0x00,
  0x01, 0x00, 0x00, 0x00, 0x04, 0x00, 0x00, 0x00, 0xb2, 0xe1, 0xff, 0xff,
  0x0c, 0x00, 0x00, 0x00, 0x1c, 0x00, 0x00, 0x00, 0x3c, 0x00, 0x00, 0x00,
  0x0f, 0x00, 0x00, 0x00, 0x73, 0x65, 0x72, 0x76, 0x69, 0x6e, 0x67, 0x5f,
  0x64, 0x65, 0x66, 0x61, 0x75, 0x6c, 0x74, 0x00, 0x01, 0x00, 0x00, 0x00,
  0x04, 0x00, 0x00, 0x00, 0x90, 0xff, 0xff, 0xff, 0x1d, 0x00, 0x00, 0x00,
  0x04, 0x00, 0x00, 0x00, 0x09, 0x00, 0x00, 0x00, 0x72, 0x65, 0x73, 0x68,
  0x61, 0x70, 0x65, 0x5f, 0x31, 0x00, 0x00, 0x00, 0x01, 0x00, 0x00, 0x00,
  0x04, 0x00, 0x00, 0x00, 0x16, 0xe4, 0xff, 0xff, 0x04, 0x00, 0x00, 0x00,
  0x0e, 0x00, 0x00, 0x00, 0x63, 0x6f, 0x6e, 0x76, 0x31, 0x64, 0x5f, 0x32,
  0x5f, 0x69, 0x6e, 0x70, 0x75, 0x74, 0x00, 0x00, 0x02, 0x00, 0x00, 0x00,
  0x34, 0x00, 0x00, 0x00, 0x04, 0x00, 0x00, 0x00, 0xdc, 0xff, 0xff, 0xff,
  0x20, 0x00, 0x00, 0x00, 0x04, 0x00, 0x00, 0x00, 0x13, 0x00, 0x00, 0x00,
  0x43, 0x4f, 0x4e, 0x56, 0x45, 0x52, 0x53, 0x49, 0x4f, 0x4e, 0x5f, 0x4d,
  0x45, 0x54, 0x41, 0x44, 0x41, 0x54, 0x41, 0x00, 0x08, 0x00, 0x0c, 0x00,
  0x08, 0x00, 0x04, 0x00, 0x08, 0x00, 0x00, 0x00, 0x1f, 0x00, 0x00, 0x00,
  0x04, 0x00, 0x00, 0x00, 0x13, 0x00, 0x00, 0x00, 0x6d, 0x69, 0x6e, 0x5f,
  0x72, 0x75, 0x6e, 0x74, 0x69, 0x6d, 0x65, 0x5f, 0x76, 0x65, 0x72, 0x73,
  0x69, 0x6f, 0x6e, 0x00, 0x21, 0x00, 0x00, 0x00, 0xa0, 0x1a, 0x00, 0x00,
  0x98, 0x1a, 0x00, 0x00, 0x68, 0x1a, 0x00, 0x00, 0x38, 0x1a, 0x00, 0x00,
  0x1c, 0x1a, 0x00, 0x00, 0x00, 0x1a, 0x00, 0x00, 0x50, 0x14, 0x00, 0x00,
  0x40, 0x0f, 0x00, 0x00, 0x0c, 0x0f, 0x00, 0x00, 0xf8, 0x0e, 0x00, 0x00,
  0xe4, 0x0e, 0x00, 0x00, 0xd0, 0x0e, 0x00, 0x00, 0xc8, 0x0e, 0x00, 0x00,
  0xb4, 0x0e, 0x00, 0x00, 0x9c, 0x0e, 0x00, 0x00, 0x88, 0x0e, 0x00, 0x00,
  0xf8, 0x00, 0x00, 0x00, 0xf0, 0x00, 0x00, 0x00, 0xe8, 0x00, 0x00, 0x00,
  0xe0, 0x00, 0x00, 0x00, 0xd8, 0x00, 0x00, 0x00, 0xd0, 0x00, 0x00, 0x00,
  0xc8, 0x00, 0x00, 0x00, 0xc0, 0x00, 0x00, 0x00, 0xb8, 0x00, 0x00, 0x00,
  0xb0, 0x00, 0x00, 0x00, 0xa8, 0x00, 0x00, 0x00, 0xa0, 0x00, 0x00, 0x00,
  0x98, 0x00, 0x00, 0x00, 0x90, 0x00, 0x00, 0x00, 0x88, 0x00, 0x00, 0x00,
  0x68, 0x00, 0x00, 0x00, 0x04, 0x00, 0x00, 0x00, 0x16, 0xe5, 0xff, 0xff,
  0x04, 0x00, 0x00, 0x00, 0x54, 0x00, 0x00, 0x00, 0x0c, 0x00, 0x00, 0x00,
  0x08, 0x00, 0x0e, 0x00, 0x08, 0x00, 0x04, 0x00, 0x08, 0x00, 0x00, 0x00,
  0x10, 0x00, 0x00, 0x00, 0x24, 0x00, 0x00, 0x00, 0x00, 0x00, 0x06, 0x00,
  0x08, 0x00, 0x04, 0x00, 0x06, 0x00, 0x00, 0x00, 0x04, 0x00, 0x00, 0x00,
  0x00, 0x00, 0x00, 0x00, 0x00, 0x00, 0x0a, 0x00, 0x10, 0x00, 0x0c, 0x00,
  0x08, 0x00, 0x04, 0x00, 0x0a, 0x00, 0x00, 0x00, 0x02, 0x00, 0x00, 0x00,
  0x02, 0x00, 0x00, 0x00, 0x04, 0x00, 0x00, 0x00, 0x06, 0x00, 0x00, 0x00,
  0x32, 0x2e, 0x31, 0x35, 0x2e, 0x30, 0x00, 0x00, 0x76, 0xe5, 0xff, 0xff,
  0x04, 0x00, 0x00, 0x00, 0x10, 0x00, 0x00, 0x00, 0x31, 0x2e, 0x31, 0x31,
  0x2e, 0x30, 0x00, 0x00, 0x00, 0x00, 0x00, 0x00, 0x00, 0x00, 0x00, 0x00,
  0x34, 0xd5, 0xff, 0xff, 0x38, 0xd5, 0xff, 0xff, 0x3c, 0xd5, 0xff, 0xff,
  0x40, 0xd5, 0xff, 0xff, 0x44, 0xd5, 0xff, 0xff, 0x48, 0xd5, 0xff, 0xff,
  0x4c, 0xd5, 0xff, 0xff, 0x50, 0xd5, 0xff, 0xff, 0x54, 0xd5, 0xff, 0xff,
  0x58, 0xd5, 0xff, 0xff, 0x5c, 0xd5, 0xff, 0xff, 0x60, 0xd5, 0xff, 0xff,
  0x64, 0xd5, 0xff, 0xff, 0x68, 0xd5, 0xff, 0xff, 0xca, 0xe5, 0xff, 0xff,
  0x04, 0x00, 0x00, 0x00, 0x80, 0x0d, 0x00, 0x00, 0xae, 0x39, 0x7f, 0xbc,
  0x15, 0xda, 0xb2, 0xbc, 0x32, 0x08, 0x65, 0x3e, 0xbb, 0xac, 0xc7, 0x3b,
  0x74, 0xb3, 0xd2, 0xbb, 0x13, 0x6e, 0x33, 0x3d, 0xce, 0x93, 0x1f, 0xbe,
  0xad, 0xc2, 0x10, 0x3e, 0x77, 0xf9, 0x8a, 0x3d, 0x03, 0x1d, 0x33, 0x3e,
  0x3e, 0x7b, 0x37, 0x3d, 0xfe, 0x1b, 0xe2, 0x3d, 0x8e, 0x71, 0x9d, 0x3d,
  0x45, 0x19, 0x7e, 0xbc, 0xfb, 0xfa, 0x1d, 0xbe, 0xab, 0xe9, 0xec, 0x3c,
  0xeb, 0x82, 0xc6, 0xbd, 0x42, 0xbd, 0x45, 0x3d, 0xdd, 0x65, 0x84, 0x3d,
  0x58, 0xe0, 0x73, 0x3d, 0x34, 0x21, 0x1c, 0xbc, 0xa4, 0xe2, 0xa7, 0xbb,
  0x7c, 0xe9, 0xa1, 0xbd, 0x8c, 0x6e, 0xed, 0xbd, 0x75, 0x3c, 0x30, 0xbe,
  0x85, 0xa6, 0x17, 0xbd, 0x4e, 0x1e, 0x16, 0x3e, 0x82, 0x62, 0x88, 0x3d,
  0xcf, 0x3c, 0xe8, 0x3d, 0x54, 0xad, 0xe9, 0x3b, 0x1f, 0xe0, 0xd2, 0x3c,
  0xf5, 0xf9, 0xd4, 0xbd, 0x8d, 0x10, 0x82, 0xbd, 0xee, 0xcf, 0x21, 0x3d,
  0xfd, 0xd9, 0x01, 0x3e, 0x20, 0xb0, 0xfc, 0xbc, 0xf8, 0x25, 0x25, 0xbd,
  0xf2, 0xd7, 0x13, 0xbc, 0x98, 0x1c, 0xe1, 0x3d, 0xab, 0xd8, 0x0c, 0xbd,
  0x61, 0x5d, 0xa6, 0x3c, 0x54, 0x98, 0x02, 0x3d, 0x8b, 0x20, 0x61, 0xbe,
  0x2e, 0x69, 0x8e, 0xbd, 0x34, 0x40, 0xf4, 0xbd, 0xff, 0x85, 0xd1, 0xbc,
  0xf6, 0x1c, 0x48, 0x3c, 0x0b, 0x02, 0x0e, 0xbd, 0xb7, 0xc3, 0x00, 0xbd,
  0x8a, 0x28, 0x23, 0x3d, 0xa5, 0x53, 0x1a, 0xbe, 0x39, 0xb3, 0x82, 0x3c,
  0xf2, 0x09, 0xc1, 0x3d, 0xe4, 0xdc, 0xed, 0xbc, 0x59, 0x9e, 0xb7, 0x3d,
  0x68, 0x55, 0x65, 0xbd, 0xb7, 0x51, 0xaf, 0xbd, 0x43, 0xc8, 0x80, 0x3d,
  0x3d, 0x33, 0x0f, 0x3c, 0x67, 0x2f, 0x46, 0xbb, 0xdf, 0x44, 0x6b, 0xbd,
  0x2a, 0x49, 0x58, 0xba, 0x74, 0x35, 0x2a, 0xbd, 0xb5, 0xc9, 0x0f, 0x3e,
  0x41, 0xe5, 0x70, 0xbd, 0x76, 0x2b, 0xbf, 0x3d, 0xfa, 0x54, 0x17, 0xbe,
  0x4b, 0x64, 0xd2, 0xbd, 0x10, 0xe5, 0x98, 0xbd, 0xb1, 0xde, 0x29, 0x3d,
  0x71, 0x5a, 0x10, 0xbd, 0xe5, 0xd9, 0x18, 0x3e, 0x16, 0x91, 0x7d, 0xbe,
  0x49, 0x78, 0xd3, 0x3a, 0x26, 0xcf, 0xc9, 0x3d, 0x76, 0xc8, 0x9e, 0xbd,
  0x6a, 0x85, 0xd8, 0x3d, 0xe6, 0x03, 0x17, 0xbc, 0xb4, 0x81, 0x03, 0xbe,
  0x91, 0x79, 0x37, 0x3d, 0x02, 0xff, 0x73, 0xbe, 0xa6, 0x8b, 0x37, 0xbe,
  0x52, 0x0a, 0x48, 0xbb, 0x4d, 0x22, 0x3a, 0xbe, 0xc7, 0x79, 0x2f, 0x3e,
  0x09, 0x2c, 0x68, 0x3d, 0x3a, 0xf4, 0x14, 0xbe, 0x13, 0x15, 0x75, 0x3b,
  0x51, 0x08, 0x18, 0xbe, 0x8f, 0x37, 0x0e, 0xbe, 0xfb, 0x14, 0xdb, 0xbd,
  0x04, 0xbe, 0x6d, 0xbd, 0x91, 0xa8, 0x0d, 0x3e, 0xf9, 0x58, 0xbf, 0x3d,
  0xca, 0x2f, 0x10, 0xbe, 0x0c, 0xa3, 0xf0, 0x3d, 0xc6, 0x3c, 0xc7, 0xbc,
  0xe5, 0xd6, 0x58, 0xbd, 0x8d, 0x27, 0x5d, 0x3b, 0xa1, 0xed, 0xfc, 0xba,
  0x32, 0x4b, 0x5a, 0x3d, 0x9c, 0x7b, 0x06, 0x3d, 0xb6, 0x53, 0xa4, 0xbd,
  0x2a, 0x0f, 0xb3, 0x3c, 0x0d, 0xab, 0x33, 0x3d, 0xd6, 0x5b, 0xe3, 0x3d,
  0x3c, 0xed, 0x04, 0xbe, 0xe3, 0xd7, 0x07, 0xbc, 0x6d, 0xe8, 0x6b, 0x3c,
  0x92, 0x89, 0xc8, 0xbb, 0x45, 0xbb, 0xcd, 0x3d, 0x6d, 0x59, 0xe9, 0x3c,
  0x66, 0x80, 0x5f, 0x3c, 0xd2, 0xcd, 0x83, 0x3d, 0x9a, 0xc1, 0xd2, 0xbd,
  0xe6, 0x1b, 0xcc, 0x3c, 0xb2, 0xb3, 0x1a, 0xbd, 0x1b, 0x83, 0xf0, 0x3c,
  0x8a, 0xb1, 0x9e, 0xbd, 0x38, 0xb1, 0x01, 0x3d, 0x9e, 0xbd, 0x9a, 0x3b,
  0xc4, 0x47, 0x64, 0x3b, 0xbf, 0xce, 0xc1, 0x3c, 0x38, 0x55, 0xa9, 0xbc,
  0x1f, 0xb4, 0x4c, 0x3d, 0x90, 0x61, 0x78, 0xbc, 0x25, 0xff, 0x89, 0xbd,
  0xdf, 0x4d, 0x63, 0x3d, 0x11, 0x73, 0x18, 0xbc, 0xf3, 0x3c, 0xf1, 0xbb,
  0xc0, 0x93, 0xe2, 0x3d, 0x6f, 0x90, 0x2b, 0x3d, 0x94, 0x07, 0xea, 0x3b,
  0x3a, 0xdc, 0x9b, 0x3c, 0xcc, 0x3e, 0x54, 0xbd, 0x17, 0x23, 0xc3, 0xbc,
  0xdc, 0x58, 0x04, 0xbd, 0x19, 0x5b, 0x82, 0xbc, 0xe3, 0x4a, 0xd7, 0x3d,
  0xab, 0xee, 0x3b, 0x3d, 0xb1, 0x14, 0xd0, 0xbb, 0x12, 0xe9, 0xe3, 0xbc,
  0xe5, 0x89, 0x80, 0xbb, 0xd3, 0x64, 0x1f, 0xbd, 0xaa, 0x0a, 0xad, 0xbd,
  0xd7, 0xbb, 0xec, 0x3d, 0xa1, 0x90, 0xba, 0x3d, 0x23, 0x16, 0xb8, 0x3d,
  0x93, 0x80, 0x8c, 0x3d, 0x05, 0x18, 0x33, 0xbc, 0x8f, 0xbe, 0x6e, 0x3d,
  0xcf, 0x1e, 0x26, 0xbd, 0x3d, 0x67, 0x0f, 0xbe, 0xb0, 0x26, 0x10, 0x3e,
  0x51, 0x85, 0x64, 0x3d, 0xf4, 0x06, 0xb4, 0xbc, 0x8d, 0x1a, 0xb5, 0xbc,
  0xe0, 0x05, 0xbe, 0x3b, 0x1f, 0x34, 0x3c, 0x3c, 0x9a, 0x0f, 0x66, 0xbd,
  0x5a, 0xa6, 0x0b, 0xbe, 0x26, 0xe4, 0x9f, 0x3d, 0x6e, 0x19, 0xab, 0xbc,
  0x8d, 0xb1, 0x37, 0xbc, 0x5b, 0x65, 0x16, 0xbd, 0xc0, 0x38, 0x35, 0xbc,
  0x2c, 0xbf, 0x8c, 0xbd, 0xae, 0x77, 0xbb, 0xbd, 0xcd, 0x0b, 0x3d, 0xbe,
  0x9e, 0x65, 0xb1, 0x3c, 0x84, 0x36, 0x94, 0x3d, 0x7a, 0xff, 0x0a, 0xbb,
  0xb2, 0x7e, 0x58, 0xba, 0xde, 0x88, 0x90, 0xbd, 0xe7, 0x22, 0x04, 0x3e,
  0xf8, 0x14, 0x9b, 0xbd, 0xab, 0x94, 0xfc, 0xbd, 0x59, 0xa4, 0x54, 0xbd,
  0xd1, 0x0e, 0x19, 0xbc, 0x28, 0xcc, 0xac, 0x3c, 0xc1, 0xb7, 0x4e, 0xbd,
  0x44, 0x0a, 0x83, 0xbd, 0x24, 0x8b, 0xc0, 0x3d, 0xd8, 0x39, 0xad, 0xbd,
  0x07, 0x09, 0x71, 0xbe, 0xe6, 0x29, 0x05, 0xbe, 0x25, 0x58, 0xbb, 0xbc,
  0x99, 0x97, 0x98, 0xbd, 0xfc, 0x86, 0x54, 0x3e, 0x8c, 0x01, 0x5c, 0xbd,
  0x50, 0xd1, 0x80, 0x3e, 0xe9, 0x8c, 0xb2, 0xbd, 0x0c, 0xb6, 0x91, 0xbd,
  0xb9, 0x6d, 0x7b, 0x3c, 0xa9, 0xe9, 0x78, 0x3d, 0x3a, 0x72, 0xba, 0xbd,
  0x48, 0xa1, 0xf8, 0xbe, 0xa1, 0x3f, 0x31, 0x3e, 0xd2, 0x33, 0xd0, 0x3d,
  0xb3, 0xab, 0xfe, 0x3c, 0xdf, 0x8e, 0x1b, 0x3d, 0x81, 0x3a, 0xe1, 0xbd,
  0x47, 0x84, 0x4c, 0xbe, 0x89, 0x86, 0x9c, 0xbe, 0xba, 0xed, 0xdb, 0xb8,
  0x42, 0x5e, 0x91, 0xbd, 0x8d, 0xe2, 0x6b, 0xbd, 0x4f, 0x85, 0x93, 0x3c,
  0x16, 0x23, 0xa8, 0xbd, 0xf5, 0xa2, 0xef, 0x3c, 0x16, 0x93, 0xb5, 0x3c,
  0xad, 0x98, 0x89, 0xbd, 0x71, 0xb3, 0x74, 0xbd, 0xe1, 0xf6, 0xb6, 0xbd,
  0xf0, 0x11, 0x3a, 0x3e, 0x67, 0x1b, 0x3d, 0x3d, 0x2c, 0xcf, 0xcd, 0x3e,
  0xb0, 0x52, 0x94, 0xbd, 0x25, 0x02, 0x96, 0x3c, 0x21, 0xd3, 0x37, 0x3e,
  0xeb, 0x8f, 0x95, 0x3e, 0x9e, 0xf6, 0xef, 0x3d, 0xef, 0xbf, 0x01, 0xbe,
  0x09, 0xee, 0xf5, 0x3d, 0x98, 0x0d, 0x32, 0x3c, 0xf5, 0xbe, 0x89, 0x3c,
  0xf4, 0x17, 0x5d, 0xbd, 0x50, 0xe7, 0x6d, 0xbd, 0x81, 0x75, 0x79, 0xbd,
  0x21, 0x32, 0x58, 0xbd, 0x2f, 0x38, 0x04, 0xbd, 0x7b, 0x30, 0x0d, 0xbe,
  0x66, 0x0c, 0x5a, 0x3d, 0x36, 0x27, 0x06, 0x3e, 0x75, 0x59, 0xd6, 0xbb,
  0x7b, 0xb0, 0x28, 0xbd, 0xde, 0xbc, 0x88, 0xbd, 0xcb, 0xc9, 0x5c, 0x3b,
  0xb6, 0x63, 0xd4, 0x3e, 0xed, 0xd9, 0x86, 0x3d, 0xd7, 0xe2, 0x8b, 0x3d,
  0xb3, 0x9b, 0x0d, 0xbe, 0x31, 0x91, 0xde, 0xbd, 0x60, 0xf0, 0x2c, 0x3d,
  0x14, 0xd7, 0x3a, 0xbc, 0x8b, 0xbb, 0xa4, 0x3c, 0xb8, 0x3c, 0xea, 0xbd,
  0x91, 0x52, 0x56, 0x3e, 0xb1, 0x22, 0x2d, 0x3d, 0xd4, 0xe4, 0xee, 0x3d,
  0xb1, 0xc8, 0x27, 0x3e, 0xd1, 0x5f, 0x57, 0x3e, 0x86, 0xa0, 0x5b, 0x3d,
  0x9c, 0x6b, 0x20, 0x3d, 0x2b, 0xd5, 0x23, 0x3e, 0xeb, 0x47, 0x5b, 0xbe,
  0x53, 0xd7, 0x37, 0xbe, 0xff, 0x2b, 0x14, 0x3d, 0x7e, 0x05, 0x82, 0xbe,
  0x6b, 0xde, 0x5d, 0xbe, 0x9f, 0x7c, 0x39, 0xbd, 0xd4, 0x03, 0x0b, 0x3d,
  0x65, 0x4f, 0x01, 0x3e, 0xe8, 0x42, 0x5b, 0xbe, 0x6a, 0xfb, 0x97, 0xbe,
  0x10, 0xb9, 0x55, 0x3d, 0xe5, 0xe5, 0x92, 0xbc, 0xcb, 0x6d, 0xe8, 0x3e,
  0x02, 0x6d, 0x3a, 0x3e, 0x46, 0xf9, 0x85, 0xbe, 0x9b, 0x3e, 0xd4, 0xbd,
  0x0a, 0x1f, 0xbe, 0x3d, 0x67, 0xed, 0x63, 0x3d, 0x2e, 0x0d, 0xb7, 0xbe,
  0xc8, 0xed, 0xee, 0x3d, 0x99, 0xc9, 0x47, 0x3e, 0xab, 0x3f, 0x9c, 0x3e,
  0x93, 0xf0, 0xd1, 0xbe, 0x84, 0xed, 0x94, 0x3d, 0x9a, 0xfd, 0x67, 0x3e,
  0xe5, 0xcf, 0x3e, 0xbe, 0xe9, 0x96, 0xb8, 0x3d, 0x18, 0xd1, 0x2b, 0xbe,
  0xf9, 0x42, 0xac, 0xbe, 0xf0, 0x4b, 0x90, 0xbe, 0x12, 0xca, 0xdd, 0x3e,
  0x17, 0x95, 0x16, 0x3e, 0xe6, 0xdc, 0x4a, 0xbe, 0x24, 0xb3, 0xb5, 0x3d,
  0x67, 0x05, 0xff, 0x3d, 0xb9, 0x91, 0x21, 0xbe, 0xff, 0xf0, 0xb5, 0x3d,
  0x8f, 0xa3, 0xf5, 0x3b, 0x47, 0x3a, 0x11, 0xbc, 0xe1, 0x39, 0x2e, 0x3d,
  0x06, 0x83, 0xcb, 0xba, 0xfa, 0x5f, 0x0a, 0xbc, 0x29, 0x0c, 0xcf, 0xbd,
  0xa4, 0xa3, 0x31, 0x3e, 0x19, 0x83, 0x18, 0x3d, 0xe5, 0x29, 0x86, 0x3d,
  0xb0, 0x4a, 0x08, 0x3d, 0x9e, 0xa2, 0x02, 0xbb, 0x63, 0xa5, 0xbf, 0x3c,
  0xf4, 0x4a, 0x35, 0xbd, 0x4b, 0x40, 0x77, 0x3b, 0xae, 0xa5, 0xcd, 0xbd,
  0x7a, 0x40, 0xfb, 0xbd, 0xb0, 0x86, 0xcf, 0xbd, 0xae, 0xdc, 0x24, 0x3c,
  0x9a, 0xaa, 0xfe, 0x3b, 0x4e, 0x4e, 0x09, 0xbd, 0x32, 0x6b, 0x80, 0xbd,
  0x59, 0x9c, 0x6b, 0x3d, 0xf1, 0x95, 0x8d, 0x3d, 0x15, 0x35, 0xaa, 0xba,
  0x80, 0xc2, 0x5b, 0xbd, 0xbd, 0x4b, 0xe7, 0x3c, 0x26, 0x7d, 0xdd, 0x3d,
  0x50, 0x48, 0x27, 0xbd, 0xc6, 0xe6, 0x3c, 0x3d, 0x3d, 0xe6, 0xa1, 0xbd,
  0x4e, 0x3f, 0xb0, 0x3c, 0xb1, 0xb2, 0x2b, 0x3d, 0x15, 0xff, 0xdb, 0x3c,
  0x7b, 0x35, 0xd6, 0x3d, 0xb4, 0x36, 0x3c, 0x3b, 0x41, 0xb6, 0x43, 0xbc,
  0x5a, 0xb4, 0x15, 0x3b, 0xab, 0xc6, 0xad, 0xbb, 0xd4, 0xb6, 0x13, 0x3c,
  0x9d, 0xc4, 0xb8, 0x3d, 0x47, 0xd6, 0x88, 0x3c, 0x63, 0x48, 0x02, 0x3d,
  0xdb, 0x4d, 0x90, 0xbd, 0x99, 0xb2, 0x86, 0xbd, 0x0c, 0x09, 0x2b, 0xbc,
  0xc4, 0xc4, 0x92, 0x3d, 0xd0, 0x8a, 0x12, 0xbc, 0x1d, 0xb0, 0x0f, 0xbd,
  0xc5, 0x37, 0x30, 0xbe, 0xfe, 0x73, 0xd5, 0xbb, 0x13, 0xae, 0xbc, 0x3d,
  0xb4, 0x0a, 0xf6, 0xbc, 0x08, 0x2f, 0x55, 0x3d, 0x15, 0xce, 0x30, 0x3d,
  0x32, 0xd4, 0x84, 0x3d, 0xfc, 0xed, 0x1a, 0xbd, 0xb0, 0x30, 0x93, 0x3d,
  0x18, 0x7f, 0x93, 0x3c, 0x89, 0x9b, 0xeb, 0xbc, 0xb5, 0xd4, 0x80, 0x3d,
  0x26, 0xf2, 0xf9, 0xbd, 0x28, 0xdc, 0xeb, 0x3d, 0x87, 0xd1, 0xde, 0x3c,
  0x80, 0xb1, 0xf0, 0xbd, 0xa3, 0x49, 0x85, 0x3c, 0xf9, 0x2d, 0x4c, 0x3d,
  0xfc, 0x70, 0x8c, 0x3d, 0x4f, 0x25, 0x5f, 0xbd, 0xc3, 0xe6, 0x89, 0xbd,
  0x29, 0x3a, 0x4d, 0x3c, 0x75, 0xbd, 0x91, 0xbd, 0x6b, 0x76, 0x45, 0xbe,
  0x28, 0x74, 0x3d, 0x3d, 0x37, 0x0a, 0x88, 0x3e, 0xe3, 0xd5, 0x0b, 0x3c,
  0xb1, 0xbf, 0x1e, 0xbe, 0x90, 0x9c, 0xa5, 0xbe, 0xce, 0xfa, 0xbc, 0x3c,
  0xad, 0x63, 0x84, 0x3b, 0xfd, 0x9c, 0x4d, 0xbd, 0x82, 0x5c, 0xb9, 0x3c,
  0x53, 0xea, 0x84, 0x3b, 0xf1, 0x2e, 0x62, 0xbd, 0x32, 0x76, 0x35, 0xbe,
  0x37, 0xce, 0xcb, 0x3d, 0x44, 0x56, 0x6a, 0xbe, 0xb1, 0x88, 0x84, 0x3d,
  0x94, 0x75, 0x67, 0x3e, 0xee, 0xfe, 0x63, 0xbd, 0x45, 0xd7, 0x0e, 0xbf,
  0x0a, 0x92, 0x2c, 0x3d, 0xa5, 0x14, 0x00, 0x3f, 0xda, 0xa0, 0xb5, 0x3d,
  0xa8, 0xa2, 0x2c, 0xbd, 0x55, 0x19, 0x0a, 0x3e, 0xe7, 0x9a, 0x2d, 0x3e,
  0xe3, 0x6d, 0x4b, 0xbe, 0xaf, 0x0f, 0xa4, 0x3c, 0xd1, 0x36, 0x0a, 0xbd,
  0x68, 0x59, 0x32, 0xbd, 0x3e, 0xc9, 0xa8, 0xbc, 0x80, 0x02, 0x7d, 0x3c,
  0x09, 0x04, 0x12, 0x3e, 0xf6, 0x2d, 0x36, 0xbb, 0x0d, 0x40, 0x4b, 0x3d,
  0x2f, 0x8c, 0xc4, 0xbc, 0xa6, 0xa8, 0x9c, 0x3d, 0xc2, 0x8a, 0x2b, 0xbe,
  0x30, 0x2d, 0xb9, 0xbd, 0x23, 0x43, 0x36, 0xbd, 0x5a, 0xfb, 0xd7, 0xbd,
  0xc7, 0x0e, 0x0b, 0x3c, 0x6f, 0xcf, 0x5e, 0xbd, 0x12, 0xed, 0x3f, 0xbd,
  0xa7, 0x37, 0xba, 0x3d, 0xe6, 0x09, 0xc4, 0xbc, 0x24, 0xad, 0x10, 0xbd,
  0x9f, 0xd0, 0x30, 0x3d, 0x33, 0x0e, 0xf7, 0xbc, 0x96, 0x01, 0x55, 0xbd,
  0x77, 0x9f, 0x5e, 0x3d, 0xb0, 0xc1, 0x9f, 0xbc, 0xfe, 0x50, 0x1a, 0xbe,
  0x80, 0xda, 0xdc, 0xbb, 0xb8, 0x90, 0x0a, 0x3d, 0x14, 0xb3, 0x6b, 0x3e,
  0x8a, 0xf2, 0xc6, 0x3a, 0xd1, 0xc9, 0xeb, 0x3c, 0x47, 0x83, 0x06, 0xbe,
  0xf0, 0x74, 0x20, 0x3c, 0x2b, 0x8a, 0x4b, 0xbe, 0x9f, 0x02, 0xb2, 0x3d,
  0x8a, 0x16, 0x1b, 0xbd, 0x58, 0xed, 0x1d, 0x3d, 0x0a, 0xc1, 0x7a, 0x3d,
  0x93, 0xa3, 0x5d, 0x3e, 0x80, 0x5f, 0xa5, 0xbd, 0xbc, 0x1b, 0x64, 0x3c,
  0xbb, 0x44, 0x91, 0x3c, 0x1e, 0x59, 0x1b, 0x3d, 0x55, 0x57, 0xa3, 0xbd,
  0x12, 0x10, 0x5b, 0x3d, 0x6f, 0x8e, 0xcf, 0xbb, 0x3a, 0x9b, 0x4d, 0x3d,
  0x4f, 0x27, 0xfe, 0xbd, 0xc2, 0x29, 0x27, 0xbe, 0x8a, 0xee, 0x94, 0x3d,
  0x14, 0xbd, 0xdf, 0xbd, 0xeb, 0x4b, 0xe5, 0x3c, 0xba, 0xf7, 0x5a, 0x3e,
  0x31, 0x9e, 0x08, 0x3e, 0xcb, 0xb8, 0xb5, 0xbd, 0x4e, 0xdf, 0x0d, 0x3d,
  0x10, 0x81, 0xa5, 0xbd, 0x30, 0x47, 0x90, 0xbc, 0x64, 0x97, 0x18, 0x3b,
  0xd1, 0xc6, 0xdc, 0xbd, 0x32, 0xe8, 0x82, 0x3d, 0x55, 0x09, 0x60, 0x3d,
  0xdd, 0xbf, 0xc5, 0xbd, 0x3d, 0x36, 0x70, 0x3d, 0xec, 0x6a, 0x21, 0x3d,
  0x3c, 0x68, 0x00, 0xbe, 0xa0, 0x86, 0xf4, 0x3c, 0x46, 0x44, 0xec, 0xbc,
  0x38, 0x6a, 0x02, 0xbe, 0x46, 0x25, 0x47, 0xbc, 0x33, 0x4b, 0xec, 0xbc,
  0xe4, 0x72, 0x08, 0x3d, 0x83, 0xc7, 0x8b, 0x3d, 0xa9, 0x1f, 0x09, 0xbe,
  0x8d, 0x2e, 0x61, 0x3d, 0x7f, 0xcb, 0x2e, 0x3e, 0x44, 0x29, 0x99, 0x3d,
  0xfb, 0xde, 0x04, 0xbe, 0x8e, 0xc1, 0x98, 0x3b, 0x06, 0xa1, 0xdb, 0xbd,
  0xcc, 0xce, 0x37, 0x3c, 0xc2, 0x6e, 0x4d, 0x3e, 0x17, 0x31, 0x0a, 0xbb,
  0x63, 0x94, 0x00, 0x3f, 0xc4, 0x02, 0x44, 0xbd, 0x45, 0x04, 0xbf, 0xbe,
  0x94, 0x9b, 0x3e, 0x3d, 0xc9, 0xf0, 0x86, 0xbd, 0x73, 0xb8, 0x49, 0xbd,
  0xe4, 0x64, 0xe3, 0x3d, 0x13, 0x76, 0xf0, 0xbd, 0xe4, 0x87, 0x26, 0x3d,
  0x8b, 0x72, 0xce, 0x3d, 0x52, 0xa8, 0x48, 0xbe, 0x44, 0x12, 0x00, 0xbc,
  0xc3, 0xfd, 0x01, 0xbd, 0x3d, 0x53, 0x76, 0x3c, 0x5b, 0xeb, 0x94, 0x3d,
  0x8b, 0xff, 0x07, 0x3e, 0x04, 0x4b, 0xc6, 0x3c, 0x9f, 0xed, 0x1b, 0x3e,
  0xce, 0x23, 0x44, 0xbc, 0x55, 0x70, 0x00, 0x3e, 0x43, 0xb4, 0xd4, 0xbd,
  0xde, 0x05, 0xab, 0xbc, 0x92, 0x54, 0xa6, 0xbd, 0x1e, 0xd1, 0x9e, 0xbd,
  0xc9, 0xf9, 0xed, 0xbd, 0x94, 0x6b, 0xe5, 0xbd, 0xea, 0xc6, 0x34, 0x3e,
  0xe7, 0xe3, 0x36, 0xbe, 0x9a, 0x72, 0x75, 0x3d, 0x5c, 0xf7, 0x76, 0xbd,
  0xa1, 0x9f, 0x9e, 0x3d, 0x47, 0x88, 0xe0, 0xbc, 0xca, 0x2a, 0x15, 0xbe,
  0x4c, 0x82, 0x0d, 0xbe, 0x2c, 0x2b, 0x02, 0x3e, 0x32, 0x2c, 0x35, 0xbd,
  0x59, 0x12, 0xff, 0x3c, 0xa9, 0x24, 0x08, 0x3d, 0x00, 0xa3, 0x16, 0xbd,
  0x95, 0x3c, 0x35, 0xbd, 0x12, 0x39, 0xc1, 0x3c, 0x3b, 0x9c, 0x21, 0xbd,
  0x45, 0x51, 0xc8, 0x3d, 0x18, 0xb4, 0x89, 0xbd, 0x74, 0x96, 0x1f, 0xbe,
  0x64, 0x9a, 0xa1, 0xbd, 0x3e, 0x9a, 0xd8, 0x3d, 0xbc, 0xcb, 0xf8, 0xbc,
  0xed, 0xe9, 0xc8, 0x3c, 0x7c, 0xcc, 0xf4, 0x3d, 0xb3, 0x0c, 0x48, 0xbe,
  0xa0, 0x21, 0xa4, 0x3d, 0xba, 0xd3, 0x4a, 0x3e, 0xb3, 0xfa, 0xca, 0x3d,
  0x2a, 0x19, 0xe7, 0x3d, 0x5b, 0x37, 0xa2, 0x3d, 0x83, 0xff, 0x7c, 0xbd,
  0x8b, 0xf3, 0x41, 0x3d, 0x28, 0xa3, 0xa7, 0x3c, 0xdf, 0x15, 0xce, 0xbc,
  0xcd, 0xc7, 0xef, 0x3c, 0x84, 0x30, 0x1f, 0x3d, 0x10, 0x18, 0xca, 0x3a,
  0xac, 0x5a, 0xff, 0x3b, 0x4d, 0x18, 0xc4, 0x3d, 0x1f, 0x90, 0x82, 0xbd,
  0xab, 0x11, 0x2f, 0xbe, 0x32, 0x83, 0xed, 0xbc, 0x0e, 0xd8, 0x25, 0xbe,
  0xae, 0x06, 0x17, 0xbd, 0x06, 0x9c, 0xa3, 0xbd, 0xcf, 0x9c, 0x5c, 0x3d,
  0x6f, 0x0f, 0x97, 0xbc, 0x08, 0x5b, 0x09, 0xbd, 0x21, 0x5a, 0x4d, 0x3d,
  0xa3, 0xaf, 0xe3, 0xbc, 0x1d, 0xe5, 0x17, 0xbd, 0xa1, 0xe0, 0x2d, 0xbd,
  0x39, 0x96, 0xbe, 0x3e, 0xb8, 0x19, 0x0e, 0xbe, 0xbc, 0xc1, 0x25, 0xbd,
  0xfb, 0x92, 0xb9, 0xbe, 0x51, 0x6b, 0xbc, 0xbd, 0xe8, 0xd3, 0x68, 0x3d,
  0x52, 0xa1, 0x71, 0x3d, 0x55, 0x06, 0xbf, 0x3c, 0x11, 0x71, 0x31, 0x3e,
  0x6c, 0xc1, 0x2c, 0xbe, 0x03, 0xcd, 0x16, 0x3b, 0x44, 0x36, 0x2b, 0xbe,
  0xea, 0x20, 0x84, 0xbd, 0xa6, 0x42, 0x16, 0xbe, 0x25, 0x4f, 0x0f, 0x3d,
  0x20, 0xf7, 0x1e, 0xbd, 0xd4, 0x78, 0xc6, 0x3e, 0x3e, 0xcd, 0x9c, 0x3d,
  0xa5, 0x46, 0xc0, 0x3e, 0xbe, 0x95, 0x8a, 0x3e, 0x87, 0x88, 0xf5, 0xbc,
  0xbd, 0x42, 0x5a, 0x3e, 0x54, 0x81, 0x81, 0xbd, 0x14, 0x3d, 0x62, 0x3d,
  0x86, 0xbf, 0xce, 0xbe, 0xd7, 0x88, 0xda, 0x3d, 0x91, 0x93, 0xa6, 0xbd,
  0xb5, 0xac, 0x2a, 0xbe, 0x2e, 0xdf, 0x81, 0x3d, 0x63, 0xf5, 0xa8, 0xbc,
  0xca, 0x19, 0xaa, 0x3d, 0x6d, 0x71, 0x4f, 0x3a, 0x40, 0x3a, 0x00, 0xbd,
  0xc8, 0x3b, 0xb8, 0xbc, 0x0c, 0x1f, 0x14, 0x3d, 0x28, 0xeb, 0x04, 0x3d,
  0x67, 0xcc, 0x5a, 0xbb, 0x70, 0xeb, 0x38, 0x3d, 0xb3, 0x8e, 0x68, 0xb9,
  0xb9, 0xf1, 0x47, 0xbd, 0xc5, 0x00, 0x03, 0x3d, 0x40, 0x37, 0x38, 0x3b,
  0xa3, 0x3b, 0x84, 0x3d, 0x41, 0xfc, 0x28, 0x3e, 0x2a, 0x2b, 0xf6, 0xbd,
  0x62, 0xfc, 0x6f, 0x3d, 0xaf, 0xc4, 0x8d, 0x3d, 0xd4, 0xba, 0x86, 0xbd,
  0xfa, 0x91, 0xe9, 0x3d, 0xf6, 0x6b, 0x7d, 0x3c, 0xfe, 0x80, 0x8a, 0xbd,
  0xbf, 0xc1, 0x23, 0x3e, 0xdd, 0x67, 0x64, 0xbe, 0x86, 0x4d, 0x05, 0x3c,
  0x05, 0x9f, 0x2a, 0xbd, 0x87, 0x04, 0xe4, 0xbc, 0x6c, 0x42, 0x86, 0x3c,
  0x01, 0x97, 0x02, 0x3d, 0x50, 0x05, 0x49, 0xbd, 0xbd, 0x80, 0xfb, 0x3c,
  0x04, 0x46, 0x83, 0xbd, 0x44, 0x8e, 0xbc, 0x3b, 0x6e, 0x3c, 0x0a, 0xbd,
  0x62, 0x25, 0xeb, 0xbd, 0x07, 0x9d, 0x86, 0x3d, 0xae, 0x74, 0xbb, 0x3c,
  0xf8, 0xd5, 0x2e, 0xbd, 0x32, 0x9a, 0x1a, 0x3d, 0x1b, 0xc2, 0x18, 0x3d,
  0x96, 0xd3, 0x2b, 0xbc, 0xff, 0xda, 0xe8, 0xbc, 0x26, 0x4c, 0xb9, 0xbd,
  0x6d, 0xb7, 0x3f, 0xbb, 0x6e, 0x22, 0x0d, 0xbd, 0x19, 0x58, 0x0e, 0xbd,
  0x94, 0x8d, 0x82, 0xbd, 0xc2, 0x74, 0x12, 0x3e, 0x6a, 0x26, 0x10, 0x3c,
  0x46, 0x58, 0x6f, 0x3d, 0xa0, 0x36, 0x92, 0xbd, 0xbc, 0xb4, 0xe7, 0x3c,
  0x34, 0x1f, 0x60, 0xbd, 0xaa, 0x4e, 0x09, 0xbe, 0xf9, 0xeb, 0xdc, 0xbd,
  0x74, 0x5c, 0xe1, 0x3c, 0x9e, 0x54, 0x9f, 0x3d, 0x6e, 0xd4, 0xf1, 0x3d,
  0x17, 0x3d, 0x4a, 0xbd, 0x0e, 0x42, 0xa6, 0x3d, 0xd2, 0x09, 0xbf, 0xbd,
  0x4c, 0x9f, 0x9e, 0x3c, 0x0c, 0x50, 0x33, 0xbe, 0x13, 0x8f, 0x84, 0x3d,
  0x88, 0x2c, 0x59, 0xbd, 0x04, 0x9f, 0x97, 0x3d, 0x57, 0x96, 0xc7, 0x3c,
  0xff, 0x17, 0x0b, 0x3e, 0x9a, 0x25, 0x93, 0xbd, 0xcb, 0xfd, 0x12, 0x3e,
  0x92, 0xdc, 0x22, 0xbe, 0x6d, 0xe9, 0xdd, 0x3c, 0x76, 0xe3, 0x07, 0x3d,
  0x1d, 0x93, 0xd4, 0xbd, 0x80, 0x91, 0x27, 0x3e, 0x7c, 0x66, 0x6b, 0x3d,
  0xdf, 0xbd, 0x29, 0x3d, 0xe8, 0x91, 0x87, 0x3e, 0x1c, 0xd0, 0xc2, 0xbc,
  0xa1, 0xef, 0xce, 0x3c, 0x2e, 0x58, 0x7e, 0x3d, 0xd2, 0xef, 0x2b, 0xbe,
  0xe9, 0xb7, 0x13, 0x3e, 0x6e, 0x32, 0x83, 0x3d, 0xd9, 0xce, 0x49, 0x3e,
  0xbb, 0xf2, 0x7f, 0x3e, 0x87, 0xfc, 0xa0, 0xbd, 0x0f, 0x18, 0x86, 0x3e,
  0x7d, 0x73, 0x33, 0x3d, 0x3d, 0x39, 0x8a, 0xbe, 0x75, 0x88, 0xda, 0x3d,
  0x15, 0x60, 0xa5, 0xbe, 0x79, 0x59, 0xad, 0x3d, 0x47, 0x6e, 0xa3, 0xbc,
  0x31, 0xf4, 0x03, 0xbd, 0xbd, 0xe1, 0xfd, 0x3b, 0xa4, 0x4d, 0x26, 0xbd,
  0x74, 0x74, 0xc8, 0x3c, 0x7e, 0x8a, 0xb0, 0x3b, 0x67, 0xd0, 0xcf, 0xbd,
  0xc1, 0xf1, 0x91, 0x3d, 0x16, 0x0b, 0x91, 0xbb, 0x1c, 0xb8, 0x93, 0x3c,
  0xf0, 0x5a, 0x3c, 0x3d, 0xc5, 0xd1, 0xb4, 0xbb, 0x15, 0x3e, 0xae, 0x3c,
  0x88, 0x8a, 0x85, 0x3c, 0xd6, 0xc6, 0x1c, 0xbd, 0x7e, 0x96, 0xc3, 0xbc,
  0xd2, 0xe4, 0xb5, 0xba, 0x59, 0x27, 0xb8, 0xbc, 0x55, 0xfe, 0x88, 0xbc,
  0x70, 0x87, 0x98, 0x3a, 0x6c, 0x08, 0xe4, 0x3c, 0x66, 0xaf, 0x39, 0x3d,
  0x86, 0x48, 0x47, 0x3b, 0xc7, 0x1d, 0xe1, 0xbc, 0x68, 0x88, 0xbc, 0x3c,
  0xec, 0x01, 0x40, 0xbd, 0xb1, 0x98, 0x93, 0xbd, 0x7a, 0xd6, 0x83, 0xbc,
  0x09, 0xd5, 0xba, 0xbc, 0xca, 0x1f, 0x0e, 0xbd, 0x7b, 0x30, 0x29, 0x3d,
  0x35, 0x68, 0x39, 0xbb, 0x75, 0xce, 0x96, 0x3d, 0xc8, 0x7c, 0xc3, 0x3a,
  0xd4, 0xca, 0xa1, 0xbd, 0x6b, 0xf3, 0x73, 0xb9, 0x7c, 0xbf, 0x98, 0x3c,
  0xef, 0x8e, 0x69, 0xbd, 0xca, 0x46, 0xd0, 0x3c, 0x5c, 0x3b, 0xc5, 0xbb,
  0x4d, 0xa7, 0x70, 0x3d, 0x00, 0x57, 0xb2, 0xb9, 0x23, 0x87, 0x97, 0xbd,
  0xd3, 0x3b, 0xc3, 0xbc, 0x85, 0x3b, 0x9c, 0x3c, 0xa6, 0x24, 0x13, 0x3d,
  0xa6, 0x94, 0x9e, 0xbd, 0xf4, 0x08, 0xb4, 0x3b, 0x34, 0xd3, 0x23, 0x3d,
  0xb4, 0xc8, 0xc1, 0xbd, 0x36, 0x15, 0x0a, 0xbd, 0xfb, 0xee, 0x63, 0xbc,
  0x91, 0x3b, 0x01, 0x3d, 0x2f, 0xf9, 0xd8, 0x3c, 0x47, 0x8d, 0xaf, 0xbd,
  0xe3, 0xeb, 0x9a, 0xbb, 0x87, 0xa4, 0x17, 0x3a, 0xd9, 0xb7, 0xa8, 0xbd,
  0x3a, 0xd2, 0x56, 0xbd, 0x13, 0xda, 0x7c, 0x3d, 0x67, 0x65, 0x82, 0x3d,
  0x3f, 0xcb, 0x36, 0xbd, 0xd2, 0x6f, 0x3d, 0xbd, 0xb3, 0x6c, 0xf4, 0xbb,
  0xd2, 0x55, 0xc7, 0x3b, 0x22, 0x61, 0x8f, 0xbd, 0x59, 0x19, 0xd1, 0xbc,
  0xf9, 0x97, 0x96, 0x3d, 0x4f, 0x19, 0x86, 0x3d, 0x1b, 0x3d, 0x01, 0xbd,
  0x7c, 0x48, 0x8c, 0xbd, 0x01, 0x46, 0x27, 0xbc, 0x2c, 0x1c, 0xec, 0x3c,
  0xf3, 0xd7, 0xa8, 0xbd, 0xf7, 0xe6, 0x06, 0xbd, 0x3c, 0xd2, 0x8c, 0x3d,
  0x68, 0x86, 0x9f, 0x3d, 0xff, 0xdf, 0x23, 0xbc, 0x13, 0x90, 0x2d, 0xbe,
  0x1e, 0x9e, 0x92, 0x3c, 0x27, 0x1a, 0xbf, 0x3c, 0xc8, 0x10, 0xa3, 0xbc,
  0x6e, 0xca, 0xa5, 0x3d, 0x2e, 0x6f, 0x43, 0x3d, 0x86, 0xa5, 0xe0, 0x3c,
  0x7e, 0x3d, 0x2e, 0x3c, 0x36, 0x47, 0x40, 0xbe, 0xb0, 0x99, 0x22, 0x3d,
  0x56, 0x53, 0xd6, 0x3d, 0x37, 0x8a, 0xb0, 0xbc, 0x81, 0x04, 0xd2, 0x3c,
  0x1d, 0x5a, 0x80, 0x3c, 0xd6, 0x71, 0xac, 0x3d, 0x08, 0x5c, 0xda, 0x3c,
  0xfd, 0x1e, 0x88, 0xbe, 0x04, 0xcf, 0x1c, 0xbc, 0xf2, 0xf5, 0x03, 0x3b,
  0xc6, 0xa0, 0xce, 0x3b, 0x11, 0xbf, 0x05, 0x3c, 0x5c, 0xf6, 0xe1, 0x3c,
  0xdb, 0x02, 0x7b, 0x3d, 0xb8, 0x98, 0xd5, 0xbd, 0x54, 0x15, 0xdc, 0x3d,
  0xb5, 0xa9, 0xf3, 0xbc, 0x51, 0x32, 0xdf, 0xbb, 0x9d, 0x41, 0xbb, 0x3b,
  0xc1, 0x66, 0x0a, 0xbd, 0x7f, 0xf9, 0xc7, 0xbb, 0x32, 0xa1, 0xd3, 0xbc,
  0xa8, 0x8f, 0xbe, 0x3c, 0x35, 0x62, 0xac, 0x3d, 0x7b, 0xee, 0x6e, 0xbd,
  0x14, 0xb5, 0x2b, 0xbb, 0x9e, 0x1a, 0x81, 0xbc, 0xc6, 0x85, 0xd0, 0xbc,
  0x42, 0x3f, 0x73, 0x3b, 0xad, 0xfd, 0x76, 0xbd, 0x5a, 0xa8, 0xf9, 0xbb,
  0x6e, 0x33, 0xfe, 0x3d, 0xd2, 0x73, 0x31, 0xbd, 0x99, 0x80, 0x39, 0x3d,
  0x3f, 0x25, 0x4c, 0xbd, 0x67, 0xc1, 0xe2, 0xba, 0xcd, 0x50, 0x8f, 0x3c,
  0x0d, 0x0b, 0xa9, 0xbd, 0x30, 0xba, 0x20, 0xbd, 0x43, 0x90, 0xda, 0x3d,
  0x46, 0x81, 0x16, 0xbc, 0x04, 0xd4, 0x4a, 0x3d, 0x73, 0xb2, 0x13, 0xbb,
  0x26, 0x11, 0x2d, 0xbc, 0x33, 0xfe, 0x39, 0xbb, 0xd3, 0x22, 0x2b, 0xbd,
  0xb2, 0x18, 0xa5, 0xbc, 0xb3, 0x49, 0x11, 0x3d, 0x35, 0x60, 0x42, 0x3c,
  0x60, 0x31, 0xa8, 0x3b, 0x9e, 0xe5, 0x78, 0x3c, 0xcf, 0xae, 0x1d, 0xbb,
  0x73, 0xbb, 0x37, 0xbc, 0x37, 0x72, 0x0f, 0xbd, 0xa2, 0x29, 0xd5, 0x3b,
  0x1b, 0x7a, 0x82, 0x3d, 0x39, 0x30, 0x29, 0xbc, 0x14, 0x46, 0x76, 0xbc,
  0xac, 0xbe, 0x21, 0xbc, 0x7b, 0xb7, 0x72, 0x3b, 0x80, 0x25, 0x5c, 0xbd,
  0x2c, 0xe1, 0xb3, 0x3a, 0xb7, 0xf8, 0x74, 0x3c, 0xb7, 0x59, 0x63, 0x3d,
  0x5f, 0xd2, 0x0c, 0xbd, 0xba, 0xe5, 0x97, 0xbc, 0x0f, 0x4d, 0x91, 0xbd,
  0x21, 0xcd, 0x17, 0x3a, 0xcc, 0x82, 0x95, 0xbc, 0x19, 0xe1, 0xcf, 0x3c,
  0xc3, 0x54, 0x42, 0x3d, 0xf2, 0xe5, 0x6f, 0xba, 0x00, 0x2a, 0xef, 0xbc,
  0x90, 0x07, 0x01, 0x3d, 0xc4, 0x0d, 0xda, 0xbd, 0xc5, 0xc4, 0x99, 0x3a,
  0x25, 0x6c, 0x01, 0x3d, 0xc6, 0x08, 0x74, 0x3d, 0xfb, 0x2d, 0x99, 0x3d,
  0xe8, 0xaa, 0x8e, 0x3c, 0x26, 0x6d, 0x80, 0xbc, 0x6f, 0x26, 0x63, 0x3d,
  0x20, 0xb5, 0x99, 0xbd, 0x18, 0x6a, 0x40, 0x3d, 0xda, 0xba, 0x67, 0x3d,
  0x4a, 0x2d, 0xb3, 0x3b, 0xe3, 0x4d, 0xc5, 0x3d, 0x91, 0xaa, 0x45, 0xbd,
  0x7b, 0x78, 0x3d, 0xbc, 0x82, 0x88, 0x55, 0x3d, 0x76, 0xcc, 0xa7, 0xbd,
  0x62, 0x39, 0x01, 0x3d, 0x4e, 0x2a, 0xda, 0x3d, 0xbc, 0x7b, 0xd4, 0x3d,
  0x72, 0x51, 0xeb, 0x3d, 0xb2, 0x16, 0xe0, 0xbb, 0x04, 0xd8, 0xc8, 0xbc,
  0x34, 0xc2, 0xd7, 0xbb, 0x37, 0x75, 0xf3, 0xbd, 0xbb, 0x92, 0x0a, 0xbd,
  0xc2, 0x35, 0x92, 0x3d, 0xdd, 0xbe, 0x38, 0x3d, 0x9e, 0x20, 0x31, 0x3e,
  0x6b, 0xac, 0x81, 0x3d, 0xc0, 0x39, 0x03, 0xbe, 0x56, 0xf3, 0xff, 0xff,
  0x04, 0x00, 0x00, 0x00, 0x04, 0x00, 0x00, 0x00, 0xfd, 0xff, 0xff, 0xff,
  0x66, 0xf3, 0xff, 0xff, 0x04, 0x00, 0x00, 0x00, 0x08, 0x00, 0x00, 0x00,
  0xff, 0xff, 0xff, 0xff, 0x60, 0x00, 0x00, 0x00, 0x7a, 0xf3, 0xff, 0xff,
  0x04, 0x00, 0x00, 0x00, 0x04, 0x00, 0x00, 0x00, 0x02, 0x00, 0x00, 0x00,
  0x2c, 0xe3, 0xff, 0xff, 0x8e, 0xf3, 0xff, 0xff, 0x04, 0x00, 0x00, 0x00,
  0x04, 0x00, 0x00, 0x00, 0x09, 0x00, 0x00, 0x00, 0x9e, 0xf3, 0xff, 0xff,
  0x04, 0x00, 0x00, 0x00, 0x04, 0x00, 0x00, 0x00, 0x00, 0x00, 0x00, 0x00,
  0xae, 0xf3, 0xff, 0xff, 0x04, 0x00, 0x00, 0x00, 0x04, 0x00, 0x00, 0x00,
  0x01, 0x00, 0x00, 0x00, 0xbe, 0xf3, 0xff, 0xff, 0x04, 0x00, 0x00, 0x00,
  0x24, 0x00, 0x00, 0x00, 0x1f, 0xb9, 0x19, 0x3e, 0x73, 0x20, 0xff, 0x3e,
  0x87, 0x04, 0x81, 0x3e, 0x61, 0xcf, 0xa1, 0x3d, 0xc6, 0x11, 0x2b, 0x3e,
  0x5f, 0x31, 0x90, 0x3d, 0x9b, 0xba, 0xab, 0xbe, 0x4e, 0xce, 0x4c, 0x3f,
  0x45, 0x73, 0xfe, 0xbe, 0xee, 0xf3, 0xff, 0xff, 0x04, 0x00, 0x00, 0x00,
  0x00, 0x05, 0x00, 0x00, 0x43, 0x99, 0x10, 0xbb, 0xcc, 0x05, 0x70, 0x3d,
  0x50, 0x8e, 0xec, 0xbd, 0x24, 0x71, 0xad, 0x3e, 0x2e, 0xea, 0x8b, 0xbd,
  0x70, 0x66, 0x91, 0xbd, 0xf7, 0xd0, 0x17, 0x3e, 0xc9, 0x0e, 0x3c, 0xbe,
  0xad, 0x35, 0x42, 0xbc, 0x36, 0xbf, 0x58, 0x3e, 0x05, 0x8b, 0xe5, 0xbd,
  0x97, 0x84, 0x10, 0x3e, 0xf3, 0x4c, 0x6b, 0xbe, 0xf8, 0xb2, 0xb0, 0xbe,
  0xb7, 0x9b, 0x57, 0xbd, 0x64, 0x3f, 0xc6, 0xbc, 0x22, 0xc9, 0x09, 0xbe,
  0x69, 0xed, 0x99, 0x3c, 0x60, 0xb9, 0xf0, 0xbe, 0x13, 0x3b, 0x0a, 0xbd,
  0x19, 0xa2, 0x08, 0x3e, 0x13, 0x6d, 0x40, 0xbe, 0xa3, 0x33, 0xae, 0xbe,
  0x66, 0xb5, 0x11, 0x3e, 0x0e, 0x0b, 0x52, 0xbe, 0x8a, 0x51, 0x41, 0x3e,
  0xbc, 0x3d, 0x02, 0xbf, 0x5b, 0xe8, 0x55, 0x3e, 0xae, 0x69, 0x0c, 0x3e,
  0x7c, 0x2d, 0x1a, 0x3e, 0x84, 0x1f, 0x66, 0x3e, 0x99, 0x61, 0x54, 0x3e,
  0x7a, 0xa6, 0x0a, 0xbf, 0x68, 0x26, 0xce, 0xbe, 0x6e, 0x1c, 0x8e, 0xbe,
  0x9a, 0x2a, 0xae, 0x3d, 0x2c, 0x71, 0x18, 0x3e, 0x40, 0x3f, 0xf6, 0x3c,
  0xa8, 0x25, 0x21, 0x3f, 0x6f, 0xcb, 0x3d, 0x3e, 0x3a, 0x02, 0x03, 0xbe,
  0xae, 0x4e, 0x38, 0x3d, 0xd4, 0x5d, 0x79, 0x3e, 0x64, 0x2d, 0xaf, 0xbd,
  0x64, 0xed, 0x5e, 0xbe, 0xf0, 0x40, 0x36, 0x3d, 0x84, 0x34, 0xc7, 0xbe,
  0xb3, 0x40, 0x45, 0xbd, 0xc1, 0x02, 0x16, 0x3d, 0x17, 0x7f, 0x97, 0xbd,
  0x5a, 0xf4, 0xfd, 0x3c, 0x96, 0x72, 0x89, 0xbd, 0x16, 0x03, 0xc3, 0xbd,
  0x89, 0x98, 0x62, 0x3e, 0x0a, 0x10, 0x81, 0xbd, 0x37, 0xa5, 0x43, 0x3d,
  0x18, 0x42, 0x11, 0x3e, 0xed, 0x00, 0x90, 0x3d, 0x3d, 0x13, 0x4e, 0x3d,
  0x16, 0x4e, 0xa4, 0x3d, 0x10, 0xd2, 0x35, 0x3e, 0x97, 0xe7, 0xaf, 0xbd,
  0xbb, 0xc1, 0x82, 0x3d, 0x48, 0xcd, 0xb7, 0x3d, 0x34, 0x98, 0x08, 0xbe,
  0xd6, 0x74, 0x4b, 0xbd, 0x16, 0xc1, 0x96, 0xbe, 0x20, 0xb0, 0x7d, 0xbc,
  0x34, 0x9b, 0x35, 0x3e, 0x44, 0x83, 0xb2, 0x3d, 0x90, 0x0b, 0x67, 0xbe,
  0xcc, 0x4e, 0x4d, 0xbe, 0x08, 0xa3, 0x88, 0xbe, 0x3a, 0x98, 0xed, 0x3e,
  0x63, 0xac, 0x3d, 0x3e, 0xb2, 0x48, 0x00, 0x3f, 0x02, 0x7e, 0x0b, 0x3e,
  0xb4, 0x6d, 0x93, 0x3e, 0x47, 0x2b, 0x2a, 0xbe, 0x82, 0x4a, 0xad, 0x3d,
  0x07, 0x35, 0xc5, 0x3e, 0x12, 0x67, 0x03, 0x3e, 0x99, 0xe1, 0x5b, 0x3e,
  0x0f, 0x50, 0xd1, 0xbb, 0x60, 0x5e, 0x6f, 0xbe, 0x82, 0x56, 0x34, 0x3d,
  0xe8, 0x2f, 0xb5, 0xbe, 0x40, 0xc7, 0xe2, 0x3d, 0x2f, 0x84, 0xf5, 0x3d,
  0xc4, 0x7d, 0x9b, 0x3d, 0x9b, 0xd7, 0xaf, 0xbd, 0xf1, 0xc3, 0x9f, 0x3d,
  0xcc, 0x7f, 0x34, 0xbe, 0xf8, 0xe5, 0x45, 0x3d, 0x5a, 0xcf, 0xb2, 0xbe,
  0xd5, 0x61, 0x02, 0xbe, 0x27, 0x13, 0xca, 0x3e, 0x4d, 0xfe, 0xd7, 0x3d,
  0x71, 0x77, 0x07, 0x3e, 0xc4, 0x89, 0x30, 0x3e, 0xa8, 0xc1, 0x0e, 0xbe,
  0xf9, 0xdc, 0x0d, 0xbe, 0xb5, 0x31, 0xc5, 0xbe, 0x89, 0xb6, 0x3c, 0x3e,
  0x35, 0x82, 0xc3, 0x3d, 0xd3, 0x67, 0xf9, 0xbd, 0x0e, 0x76, 0x11, 0xbd,
  0x70, 0x06, 0x61, 0x3d, 0x95, 0xd6, 0xd9, 0xbe, 0x9d, 0xea, 0x34, 0xbe,
  0x7c, 0x17, 0xbe, 0xbe, 0x24, 0xab, 0x0b, 0x3e, 0xbd, 0xd3, 0x04, 0x3e,
  0xe7, 0x2c, 0x72, 0x3d, 0x07, 0xbe, 0xa6, 0x3e, 0x53, 0xf0, 0x47, 0x3e,
  0xf9, 0x46, 0x0f, 0xbf, 0x8d, 0xe5, 0x44, 0xbe, 0x29, 0x4c, 0xa8, 0xbe,
  0x80, 0x77, 0xbe, 0x3e, 0x9f, 0x4d, 0xa3, 0xbb, 0x8b, 0x8c, 0x3d, 0xbe,
  0xd4, 0x8f, 0xd1, 0x3e, 0x20, 0xb7, 0x30, 0xbe, 0x2b, 0x3b, 0x3e, 0xbe,
  0x92, 0x3e, 0x45, 0x3e, 0x14, 0x12, 0x1b, 0x3d, 0xae, 0x9e, 0x0b, 0xbe,
  0x65, 0xc1, 0x8e, 0xbd, 0x87, 0x1c, 0xcc, 0x3d, 0x8a, 0xfb, 0x95, 0x3e,
  0xac, 0x67, 0x86, 0x3d, 0x37, 0xfc, 0x3a, 0xbd, 0x91, 0xb9, 0x8c, 0x3e,
  0xca, 0xea, 0x0c, 0x3b, 0x2c, 0x62, 0x88, 0x3c, 0x28, 0xcc, 0xcd, 0xbd,
  0x27, 0xab, 0x35, 0x3e, 0xe5, 0x6a, 0x44, 0xbd, 0x30, 0xe8, 0xa2, 0xbe,
  0x0f, 0x54, 0x81, 0xbd, 0xb6, 0xaf, 0x59, 0x3e, 0x09, 0x32, 0x10, 0x3e,
  0xfe, 0xb6, 0x10, 0xbe, 0x70, 0xfc, 0x6e, 0xbe, 0xf4, 0x91, 0xd3, 0xbd,
  0xcf, 0x6c, 0x1f, 0x3e, 0x0a, 0xee, 0x89, 0x3d, 0x8b, 0x70, 0x5f, 0x3e,
  0xad, 0xf7, 0x3a, 0x3e, 0xf0, 0xfe, 0x6e, 0x3d, 0x9c, 0x37, 0x05, 0x3e,
  0xbf, 0xbd, 0x73, 0xbe, 0xce, 0xe3, 0x7b, 0xbf, 0x00, 0xe1, 0x0f, 0x3e,
  0x03, 0xfd, 0x13, 0x3e, 0xb7, 0x3d, 0xca, 0x3d, 0x3d, 0xf6, 0x51, 0xbb,
  0xdd, 0xa2, 0x6c, 0x3e, 0x97, 0x63, 0xbd, 0x3d, 0xac, 0x0a, 0xba, 0xbd,
  0xfb, 0x76, 0xfc, 0x3d, 0xd8, 0x76, 0x5f, 0xbe, 0x93, 0x69, 0x0c, 0xbd,
  0xfa, 0xa7, 0x9a, 0xbd, 0x32, 0x97, 0x07, 0xbe, 0xa8, 0xbe, 0x5a, 0x3e,
  0x86, 0x22, 0x84, 0xbe, 0xef, 0x59, 0xf1, 0xbd, 0xe9, 0x98, 0x6f, 0x3e,
  0x89, 0xb8, 0x1d, 0xbe, 0x8a, 0xef, 0x7a, 0xbc, 0x28, 0x6c, 0xdf, 0xbe,
  0xfb, 0xfd, 0x66, 0xbe, 0x3b, 0x34, 0x36, 0xbd, 0xac, 0x97, 0xfd, 0x3d,
  0x4a, 0x53, 0x47, 0x3d, 0x09, 0x47, 0x07, 0x3d, 0x34, 0x7b, 0x20, 0x3e,
  0xd1, 0xca, 0x39, 0x3e, 0x63, 0x91, 0x4b, 0xbe, 0xd0, 0xaa, 0x0b, 0xbe,
  0x3c, 0x4a, 0xea, 0xbd, 0x16, 0xbc, 0x1a, 0xbb, 0x64, 0x32, 0x7a, 0x3e,
  0x7f, 0x1f, 0x6f, 0x3e, 0xef, 0xb7, 0xc5, 0xba, 0x57, 0x8e, 0x29, 0x3e,
  0x77, 0x78, 0x16, 0x3e, 0x07, 0x6c, 0x71, 0xbe, 0xa3, 0x80, 0xf0, 0xbc,
  0x50, 0xd1, 0x0e, 0x3c, 0x9e, 0xb4, 0x1d, 0x3e, 0x0f, 0x6a, 0x2b, 0x3e,
  0xba, 0xa8, 0x0f, 0xbf, 0xaa, 0x13, 0xb2, 0x3e, 0x5e, 0xf1, 0x5d, 0x3e,
  0x32, 0xe1, 0xc8, 0xbe, 0xb4, 0xea, 0x57, 0x3d, 0x95, 0x66, 0x22, 0xbf,
  0x84, 0x7a, 0x16, 0xbf, 0x87, 0x45, 0x3b, 0xbe, 0x9c, 0x98, 0x3e, 0xbd,
  0x79, 0x15, 0x17, 0xbe, 0xe1, 0xb8, 0xbc, 0x3e, 0x25, 0xb3, 0x30, 0x3f,
  0x85, 0x67, 0xb2, 0x3d, 0x0d, 0xbb, 0x22, 0x3e, 0xd6, 0x1b, 0xf4, 0x3d,
  0x5f, 0xd0, 0xfe, 0x3d, 0x1b, 0xea, 0x89, 0x3e, 0x08, 0x78, 0x98, 0xbe,
  0x71, 0x03, 0x3d, 0x3e, 0xe3, 0xdd, 0xd8, 0x3e, 0x84, 0xd6, 0x9c, 0x3d,
  0x17, 0x46, 0x82, 0x3e, 0x48, 0xaf, 0x96, 0x3d, 0xcd, 0x75, 0xe7, 0x3d,
  0xbe, 0x6e, 0x27, 0x3d, 0xf4, 0x1a, 0xdd, 0xbe, 0xe3, 0x29, 0x44, 0x3d,
  0xd4, 0x26, 0x80, 0x3d, 0x3f, 0xb4, 0x3f, 0xbe, 0x67, 0x9b, 0x13, 0x3e,
  0x27, 0x15, 0x7c, 0xbc, 0xb5, 0x70, 0x86, 0x3e, 0x2a, 0x08, 0x84, 0x3d,
  0xa9, 0xeb, 0x2a, 0x3d, 0x88, 0x60, 0x58, 0xbc, 0xb2, 0xee, 0xf5, 0xbd,
  0x21, 0x7e, 0x8c, 0x3e, 0xbf, 0x50, 0x54, 0xbe, 0xc4, 0xa6, 0x0f, 0xbf,
  0x04, 0xd6, 0x58, 0x3f, 0x4c, 0x03, 0x25, 0x3f, 0x66, 0xd0, 0x02, 0x3d,
  0xd6, 0x4c, 0x28, 0x3e, 0xfb, 0x7a, 0x56, 0xbe, 0xd2, 0x40, 0x73, 0x3e,
  0xe0, 0xa6, 0xee, 0xbe, 0x94, 0xe6, 0xc0, 0x3e, 0x58, 0x71, 0xea, 0xbd,
  0x1d, 0xbe, 0xa0, 0x3e, 0x46, 0x50, 0xc2, 0x3d, 0xc4, 0x03, 0xf3, 0xbd,
  0xe2, 0xe9, 0x86, 0x3d, 0xa2, 0xcf, 0x54, 0x3c, 0x78, 0x25, 0x94, 0xbd,
  0xd2, 0x19, 0x14, 0x3e, 0xc9, 0xfb, 0x37, 0xbe, 0xd2, 0x61, 0x9f, 0x3c,
  0x77, 0x37, 0x65, 0xbd, 0x78, 0x95, 0x9a, 0xbd, 0xdf, 0x83, 0xb7, 0x3e,
  0xf4, 0x68, 0xd8, 0xbd, 0x18, 0x49, 0xb2, 0x3d, 0xb4, 0x2a, 0x04, 0x3e,
  0x4a, 0x1b, 0x89, 0x3d, 0xdd, 0x13, 0x81, 0x3e, 0xf3, 0xab, 0x26, 0xbd,
  0xd5, 0x02, 0x42, 0xbe, 0x54, 0x5e, 0x33, 0x3d, 0x16, 0xc9, 0x3b, 0xbe,
  0x76, 0xc4, 0x2a, 0xbe, 0x14, 0xad, 0x71, 0x3e, 0xce, 0x7d, 0xf7, 0x3d,
  0xa6, 0x2d, 0xa3, 0x3d, 0x1e, 0x89, 0xba, 0xbe, 0xea, 0x5b, 0x3d, 0xbe,
  0xa8, 0x90, 0x5d, 0x3d, 0x54, 0x56, 0x70, 0xbe, 0x8d, 0xad, 0xcb, 0xbd,
  0xb9, 0x77, 0xd3, 0x3e, 0x27, 0xdf, 0xe8, 0x3e, 0x1b, 0xce, 0x89, 0xbd,
  0x93, 0x92, 0xb0, 0xbe, 0x31, 0xdf, 0xc0, 0xbe, 0xbd, 0x21, 0xd2, 0xbe,
  0x85, 0xf0, 0x4a, 0xbe, 0x86, 0x9a, 0x1e, 0xbe, 0x85, 0x63, 0x19, 0xbe,
  0x7d, 0x0b, 0xc0, 0xbe, 0xdf, 0x48, 0x07, 0x3e, 0x42, 0xd6, 0x14, 0x3f,
  0xa5, 0xfb, 0x52, 0x3d, 0x39, 0x66, 0x4c, 0x3e, 0xda, 0x27, 0x37, 0x3d,
  0x0c, 0x2e, 0xe8, 0xbe, 0x94, 0x10, 0xbc, 0x3d, 0x56, 0xea, 0x03, 0x3e,
  0x92, 0x60, 0x22, 0x3c, 0x71, 0xe1, 0x8e, 0xbc, 0x33, 0xee, 0x84, 0x3c,
  0x0c, 0xfe, 0xa6, 0xbd, 0xc8, 0x75, 0xdc, 0x3d, 0xc5, 0x92, 0xf5, 0xbc,
  0xd9, 0x07, 0x5c, 0xbd, 0x90, 0xfe, 0xc7, 0x3e, 0xc5, 0x60, 0x8f, 0xbd,
  0xf7, 0x68, 0x35, 0x3d, 0x72, 0x86, 0xe0, 0x3d, 0xcc, 0xc6, 0x88, 0x3d,
  0xbb, 0xb6, 0x8e, 0x3c, 0xe8, 0xaf, 0x29, 0x3e, 0x9a, 0x9f, 0xc7, 0x3e,
  0xeb, 0xaa, 0x05, 0x3e, 0x12, 0xf6, 0x72, 0x3e, 0x03, 0x32, 0x1c, 0xbe,
  0xdd, 0x82, 0x04, 0xbe, 0x27, 0xfe, 0xe6, 0x3c, 0x34, 0x47, 0xac, 0xbd,
  0x14, 0xd8, 0x3a, 0x3e, 0xf0, 0x82, 0x09, 0x3f, 0xf0, 0x04, 0x8c, 0xbf,
  0x05, 0x3b, 0x41, 0x3e, 0x94, 0x30, 0xa8, 0xbe, 0xda, 0x64, 0xb6, 0xbe,
  0x9f, 0x62, 0x4b, 0xbc, 0x7b, 0x33, 0x4e, 0xbe, 0x2a, 0x3e, 0x3c, 0x3f,
  0xfa, 0xf8, 0xff, 0xff, 0x04, 0x00, 0x00, 0x00, 0xa0, 0x05, 0x00, 0x00,
  0xb2, 0xfd, 0x0a, 0x3d, 0xca, 0x18, 0xd6, 0xbd, 0x78, 0x39, 0x0d, 0x3c,
  0xe5, 0x2d, 0x37, 0x3e, 0xb7, 0x5b, 0xcc, 0x3e, 0xb6, 0x44, 0x1d, 0x3e,
  0xc9, 0xba, 0x69, 0xbe, 0x0f, 0x7f, 0xd2, 0x3e, 0xae, 0xcc, 0x53, 0xbe,
  0xcd, 0xa1, 0xf6, 0x3c, 0xa1, 0x01, 0x21, 0xbe, 0xe3, 0x31, 0x29, 0x3c,
  0x3b, 0x30, 0x0d, 0x3e, 0x03, 0xa8, 0xb4, 0x3a, 0x29, 0x02, 0x85, 0xbe,
  0x87, 0xf3, 0x61, 0x3e, 0xbf, 0x45, 0x43, 0x3e, 0xe6, 0xfa, 0x9e, 0xbd,
  0x3c, 0x68, 0xc2, 0x3c, 0x3e, 0x0c, 0x72, 0x3d, 0x27, 0x14, 0x8d, 0xbb,
  0x87, 0xe7, 0x3b, 0x3e, 0x21, 0xf2, 0x8b, 0x3e, 0xf3, 0xb3, 0x14, 0xbe,
  0x90, 0x49, 0x32, 0x3e, 0x93, 0x9b, 0x6e, 0x3e, 0x44, 0x36, 0x2e, 0xbd,
  0x19, 0x83, 0xa5, 0xbc, 0xeb, 0x54, 0x95, 0x3d, 0xec, 0x43, 0xe0, 0x3b,
  0x0c, 0xe8, 0x8e, 0x3e, 0xb6, 0x82, 0x90, 0xbd, 0x61, 0x55, 0xbf, 0x3d,
  0x40, 0x15, 0x83, 0xbc, 0x97, 0xa2, 0xa9, 0x3d, 0xfd, 0xad, 0xb2, 0x3c,
  0x86, 0x89, 0x65, 0x3c, 0x91, 0x5a, 0xa3, 0x3d, 0x04, 0x61, 0x28, 0xbc,
  0xbe, 0x7c, 0x49, 0x3f, 0x8a, 0x76, 0x11, 0xbf, 0x8c, 0x2e, 0x43, 0xbf,
  0x0a, 0xbc, 0x51, 0xbd, 0xaa, 0x2d, 0x7a, 0xbe, 0xb9, 0xce, 0x47, 0xbe,
  0xda, 0xd4, 0xc3, 0xbc, 0x6c, 0x1a, 0x37, 0x3e, 0x8d, 0xed, 0x17, 0x3c,
  0xa8, 0x22, 0x9d, 0xbd, 0xbd, 0x16, 0xea, 0xbe, 0x6a, 0x59, 0x95, 0x3e,
  0xa5, 0x81, 0x5b, 0xbe, 0x5e, 0x83, 0x4b, 0x3c, 0x8a, 0xda, 0x7f, 0x3d,
  0x3a, 0xc6, 0x6d, 0xbd, 0x26, 0x97, 0xc1, 0x3d, 0xb4, 0x52, 0x02, 0x3b,
  0xfc, 0xf6, 0xc5, 0xbd, 0xef, 0x85, 0xe0, 0xbd, 0x6e, 0xc5, 0x4f, 0xbe,
  0x4c, 0x53, 0x20, 0x3e, 0xf4, 0x39, 0xcf, 0x3d, 0xa5, 0x4d, 0xfe, 0xbd,
  0xb1, 0x69, 0x02, 0xbd, 0xc4, 0x64, 0x7a, 0x3d, 0x7c, 0xe8, 0xb4, 0x3b,
  0x58, 0xfe, 0xdc, 0x3e, 0x5d, 0xe9, 0xd2, 0xbd, 0xc2, 0x20, 0xbb, 0x3d,
  0xd1, 0x71, 0xa7, 0x3c, 0xb6, 0x59, 0x0c, 0xbc, 0xbf, 0x56, 0x1c, 0x3e,
  0x57, 0xb4, 0xf5, 0xbb, 0x71, 0x28, 0xbc, 0x3d, 0x26, 0x51, 0xb7, 0xba,
  0xbc, 0x53, 0xa9, 0x3c, 0x56, 0x60, 0xaa, 0xbe, 0xca, 0x8c, 0xc3, 0xbd,
  0x60, 0xca, 0x08, 0xbe, 0xbe, 0xa2, 0x79, 0x3c, 0x9f, 0x2b, 0xcd, 0x3e,
  0x1c, 0xdb, 0x46, 0xbd, 0x83, 0x81, 0x00, 0x3e, 0x1e, 0x52, 0x0b, 0x3d,
  0x9d, 0x19, 0xbb, 0xbf, 0xba, 0x9e, 0x33, 0x3d, 0x1a, 0x32, 0xba, 0xbe,
  0xe4, 0xcd, 0x14, 0xbf, 0x09, 0x89, 0x9f, 0xbe, 0x59, 0x4f, 0x04, 0x3f,
  0xf8, 0xb1, 0x5f, 0x3c, 0xe8, 0xc2, 0x2f, 0xbe, 0x41, 0x91, 0x74, 0xbb,
  0xa8, 0xa8, 0xe3, 0x3e, 0x5d, 0xc9, 0xa3, 0x3e, 0x53, 0x83, 0x3c, 0xbd,
  0x46, 0x67, 0xf4, 0xbb, 0x1d, 0x6f, 0x86, 0x3f, 0xc0, 0x13, 0xaa, 0x3e,
  0xad, 0xc8, 0x8d, 0xbc, 0x58, 0x43, 0x9c, 0xbe, 0x08, 0x3f, 0x31, 0xbc,
  0x7d, 0x25, 0xca, 0x3d, 0xe8, 0x62, 0x48, 0x3d, 0x67, 0xf6, 0x2b, 0xbe,
  0xe5, 0x9a, 0x14, 0x3e, 0x20, 0x9e, 0x09, 0x3f, 0x7a, 0x66, 0x8a, 0x3e,
  0x64, 0x50, 0x8f, 0x3d, 0xd9, 0x10, 0x6a, 0xbe, 0xeb, 0x85, 0x23, 0xbc,
  0x6f, 0x2c, 0x87, 0x3d, 0xe2, 0xd0, 0x90, 0x3e, 0x16, 0xe5, 0x2e, 0x3e,
  0xc7, 0x30, 0xc5, 0x3d, 0xd6, 0xe1, 0x84, 0x3e, 0x3a, 0x62, 0xe5, 0xbd,
  0xc4, 0xf3, 0xd8, 0x3d, 0x95, 0x07, 0x8b, 0xbe, 0xfe, 0xd0, 0x4e, 0xbb,
  0xeb, 0x59, 0x6a, 0x3d, 0xff, 0x6e, 0x92, 0xbe, 0x45, 0x4f, 0x80, 0x3e,
  0x9c, 0xed, 0x5d, 0xbe, 0x2a, 0x37, 0xa4, 0x3e, 0x6b, 0x0b, 0xc4, 0xbd,
  0x7a, 0x4c, 0x5f, 0x3e, 0x56, 0x8e, 0xe4, 0xbd, 0xf3, 0x21, 0xe1, 0x3b,
  0x63, 0x8e, 0xd6, 0xbe, 0x35, 0x56, 0x08, 0xbf, 0x67, 0x4e, 0x2c, 0x3f,
  0x4a, 0xba, 0x36, 0xbe, 0xc3, 0x6b, 0x90, 0x3d, 0x3a, 0x94, 0x46, 0x3e,
  0xb5, 0x5e, 0x0b, 0xbe, 0xe3, 0xa1, 0x2a, 0xbe, 0x1c, 0x34, 0x29, 0x3a,
  0xa0, 0x6f, 0xdc, 0xbd, 0x67, 0xcf, 0x1d, 0xbe, 0xb6, 0xca, 0xe1, 0x3c,
  0x7a, 0x31, 0xf6, 0xbd, 0xb1, 0x87, 0x3d, 0xbe, 0x4a, 0x0b, 0x3d, 0xbe,
  0x98, 0xf7, 0x42, 0xbd, 0x70, 0x99, 0x94, 0x3c, 0xd1, 0xbe, 0xc8, 0xbb,
  0xbc, 0x2e, 0x5e, 0x3d, 0xc6, 0x02, 0x19, 0x3e, 0x58, 0x6e, 0x3e, 0x3e,
  0xb3, 0xb1, 0x84, 0xbc, 0xee, 0x97, 0x2d, 0xbc, 0xfa, 0x4f, 0x31, 0xbe,
  0x3f, 0x19, 0x56, 0xbd, 0xcc, 0x8d, 0xb2, 0xbe, 0x6f, 0x83, 0x00, 0x3b,
  0x09, 0xc1, 0x4a, 0x3d, 0xc3, 0xe0, 0x58, 0xbe, 0x73, 0x43, 0x65, 0x3e,
  0x87, 0x85, 0x97, 0x3d, 0xf4, 0xfd, 0xca, 0xbd, 0xbb, 0x5b, 0x00, 0xbe,
  0xf9, 0xce, 0x58, 0xbd, 0x93, 0x0e, 0x54, 0xbe, 0x37, 0xb6, 0x09, 0x3c,
  0x61, 0x5f, 0x83, 0xbd, 0xb2, 0x7f, 0xe7, 0xbe, 0xe0, 0xb8, 0xce, 0x3e,
  0x9b, 0xd6, 0xe6, 0xbd, 0x18, 0xa5, 0x92, 0xbe, 0xb5, 0x88, 0x8c, 0x3d,
  0x42, 0x88, 0x67, 0xbd, 0x46, 0x11, 0xe1, 0xbe, 0xfa, 0x00, 0x36, 0xbc,
  0x98, 0x32, 0x32, 0xbe, 0x25, 0x20, 0x36, 0xbe, 0xee, 0xda, 0xc5, 0x3e,
  0x7f, 0x8d, 0x0b, 0xbe, 0x4b, 0xcd, 0x28, 0x3e, 0x53, 0x26, 0x4d, 0xbd,
  0xa6, 0x0a, 0x24, 0x3e, 0x92, 0x6a, 0xfe, 0x3c, 0x3b, 0x73, 0x90, 0x3b,
  0x07, 0x18, 0xae, 0x3e, 0x2d, 0xbb, 0x37, 0x3e, 0xd9, 0x7f, 0x29, 0x3e,
  0x21, 0x35, 0xb6, 0xbc, 0x18, 0xf8, 0xc4, 0x3e, 0xaf, 0xdc, 0xb7, 0xbd,
  0xba, 0x53, 0xd0, 0x3d, 0xac, 0xc6, 0x40, 0xbe, 0x31, 0x28, 0xa9, 0x3c,
  0xc3, 0xe7, 0x89, 0xbb, 0xde, 0xcb, 0x1e, 0x3e, 0x1a, 0xac, 0x8d, 0xbe,
  0x79, 0x8a, 0xee, 0xbd, 0xba, 0xb2, 0xe0, 0x3e, 0xf3, 0xdb, 0x94, 0xbe,
  0x29, 0x36, 0x26, 0x3e, 0x36, 0x5c, 0x86, 0xbc, 0xc0, 0x5f, 0xfa, 0x3b,
  0x24, 0xee, 0xa2, 0x3e, 0xfc, 0xfc, 0x3c, 0xbe, 0x75, 0x7e, 0xa4, 0xbe,
  0x45, 0x44, 0x23, 0x3e, 0xa1, 0xba, 0xf4, 0x3e, 0x9e, 0x0c, 0xa2, 0xbd,
  0x5c, 0x85, 0x33, 0x3d, 0xda, 0xfe, 0xab, 0x3d, 0x9a, 0xb9, 0xd4, 0x39,
  0x63, 0x70, 0x16, 0xbe, 0xdd, 0xd0, 0x7b, 0xbe, 0xa8, 0x12, 0x07, 0xbe,
  0xaa, 0x2e, 0xab, 0x3c, 0x16, 0x4b, 0xb8, 0x3e, 0x61, 0xbb, 0x16, 0xbe,
  0xf8, 0xfc, 0x5b, 0x3e, 0x49, 0xac, 0x1f, 0xbc, 0x5a, 0xc1, 0x04, 0x3d,
  0x7f, 0xe5, 0xbc, 0xbe, 0xe4, 0xbc, 0x8f, 0x3e, 0xa7, 0x55, 0x81, 0x3e,
  0xf1, 0xb0, 0x83, 0xbd, 0x26, 0x39, 0x09, 0x3a, 0xd3, 0x31, 0x0d, 0xbe,
  0x01, 0x41, 0x0a, 0x3d, 0x3c, 0x81, 0x1c, 0x3e, 0xc3, 0xac, 0xa5, 0xbc,
  0x18, 0x38, 0x8a, 0xbd, 0xcc, 0x29, 0xeb, 0x3d, 0xe9, 0x41, 0x1a, 0x3f,
  0xbf, 0x33, 0x0a, 0xb9, 0xad, 0x1c, 0x0b, 0xbf, 0xae, 0x1b, 0x1e, 0xbe,
  0x0c, 0x46, 0x41, 0x3d, 0xbd, 0x7b, 0x8e, 0xbe, 0xd6, 0xc7, 0xaa, 0xbb,
  0x89, 0x35, 0x9c, 0x3c, 0xdc, 0x37, 0x37, 0x3d, 0x8c, 0x2b, 0xaf, 0x3a,
  0x3b, 0x07, 0xcf, 0xbd, 0x85, 0x44, 0x7d, 0xbd, 0x86, 0x38, 0x80, 0x3e,
  0x2d, 0x2d, 0x7f, 0x3b, 0x7f, 0x66, 0x73, 0xbe, 0x1a, 0xaa, 0x94, 0x3c,
  0xa9, 0xf2, 0x2e, 0xbe, 0x77, 0xb1, 0x44, 0x3c, 0xc6, 0x3b, 0xbe, 0x3d,
  0xc2, 0x44, 0x0e, 0xbe, 0xf4, 0xed, 0x82, 0xbe, 0xca, 0xb3, 0x71, 0x3e,
  0x25, 0x65, 0xce, 0x3c, 0xd8, 0x7b, 0x1a, 0xbe, 0x6d, 0xe6, 0x15, 0x3a,
  0xb0, 0xdb, 0x31, 0xbd, 0x70, 0xd6, 0x3f, 0x3e, 0x35, 0xc0, 0x2a, 0x3e,
  0xda, 0xa2, 0x55, 0x3e, 0x8e, 0x70, 0xea, 0xbe, 0xb3, 0x02, 0x20, 0x3e,
  0x57, 0xb5, 0xc4, 0x3d, 0x33, 0x7b, 0xe8, 0xbe, 0x89, 0x57, 0x3f, 0x3c,
  0x58, 0xc5, 0x98, 0xbd, 0x10, 0x45, 0x8e, 0xbe, 0xb4, 0xb2, 0x3a, 0x3e,
  0x47, 0x89, 0x91, 0xbe, 0xb1, 0x01, 0xb0, 0xbe, 0xbb, 0xd5, 0xa1, 0x3e,
  0x1a, 0x32, 0xb3, 0xbd, 0x55, 0x1a, 0xab, 0xbd, 0xcc, 0xdc, 0x07, 0x3c,
  0x7c, 0x48, 0xb1, 0x3d, 0xb9, 0xd7, 0x01, 0xbf, 0x45, 0x7c, 0x68, 0xbc,
  0x66, 0xa2, 0x75, 0xbc, 0xd9, 0xcd, 0x36, 0x3e, 0xba, 0xf8, 0x98, 0x3e,
  0x23, 0xda, 0xe8, 0xbd, 0xf0, 0xdc, 0x59, 0x3e, 0xf0, 0x6b, 0x2f, 0xbb,
  0x37, 0x6d, 0x76, 0x3e, 0x4e, 0xbd, 0xf0, 0xbe, 0xfa, 0xd4, 0x44, 0x3e,
  0x75, 0xde, 0x17, 0x3d, 0x71, 0x45, 0x09, 0x3c, 0xda, 0x1d, 0x8b, 0x3e,
  0x2b, 0x2a, 0x6f, 0xbd, 0x4c, 0xaf, 0x4d, 0xbe, 0x69, 0x71, 0xed, 0xbb,
  0x20, 0xbd, 0xbd, 0x3e, 0xfc, 0x50, 0x9c, 0xbd, 0x5f, 0x74, 0x3b, 0xbe,
  0xde, 0xf9, 0xbf, 0x3d, 0x20, 0x7f, 0x23, 0xbe, 0x37, 0xb1, 0x2b, 0x3e,
  0x65, 0x27, 0x1b, 0xbe, 0xe5, 0x60, 0xaf, 0x3d, 0x78, 0x48, 0x08, 0xbb,
  0xe9, 0x41, 0x9c, 0x3e, 0xe2, 0x4a, 0xc5, 0x3e, 0xad, 0x67, 0xf3, 0xbd,
  0x1a, 0x9a, 0xff, 0x3d, 0xb3, 0x0e, 0x11, 0x3e, 0x96, 0x84, 0x7f, 0x3e,
  0x45, 0xfa, 0x16, 0xbe, 0xc2, 0x3b, 0x25, 0xbe, 0xa3, 0x3f, 0x18, 0xbc,
  0xed, 0xcf, 0x80, 0x3e, 0x03, 0x7c, 0x14, 0x3f, 0x24, 0xf6, 0x0c, 0x3f,
  0xbc, 0xf6, 0xff, 0xbd, 0x05, 0x14, 0x49, 0x3e, 0x2f, 0x01, 0x92, 0x3e,
  0x1f, 0x65, 0x8a, 0xbc, 0xcd, 0x78, 0x1a, 0xbd, 0x24, 0x29, 0xca, 0x3a,
  0x80, 0xcc, 0x83, 0xbe, 0xc8, 0x20, 0x95, 0x3e, 0x15, 0xed, 0xce, 0xbe,
  0xb3, 0xe3, 0xc3, 0xbd, 0x77, 0x25, 0x89, 0xbc, 0x88, 0xee, 0x87, 0x3e,
  0x30, 0x75, 0x80, 0xbc, 0xa1, 0x0b, 0x85, 0xbd, 0x3b, 0x31, 0xb8, 0xbb,
  0x15, 0x37, 0x63, 0xbd, 0x8e, 0xa5, 0xcb, 0xbd, 0x4a, 0x94, 0x77, 0xbe,
  0x61, 0x32, 0x99, 0xbc, 0x5d, 0x77, 0x2c, 0x3e, 0xeb, 0x92, 0x61, 0x3d,
  0xec, 0x6c, 0x22, 0xbc, 0x0b, 0xcc, 0xe7, 0xbd, 0x9d, 0xfe, 0x01, 0x3c,
  0x57, 0x38, 0xd6, 0x3d, 0x3c, 0x99, 0x27, 0xbe, 0xda, 0x1d, 0x6e, 0x3e,
  0xf5, 0xae, 0xfc, 0x3b, 0x10, 0xe6, 0xc1, 0xbc, 0x41, 0xbc, 0x7a, 0xbe,
  0x54, 0x9e, 0x1d, 0xbd, 0x71, 0x92, 0x81, 0xbd, 0x54, 0x05, 0x98, 0x3b,
  0xa6, 0xc5, 0x0b, 0x3e, 0xe1, 0xaa, 0xce, 0x3d, 0xa3, 0x45, 0x66, 0x3e,
  0xcd, 0x2c, 0x62, 0x3e, 0x72, 0x7e, 0xba, 0xbd, 0xb6, 0xf2, 0x52, 0xbe,
  0x6d, 0x85, 0x63, 0xbc, 0xe4, 0xca, 0x85, 0xbe, 0x60, 0x4c, 0xc6, 0xbb,
  0xb5, 0x82, 0x2b, 0x3f, 0x8e, 0xcd, 0xd8, 0xbc, 0x5b, 0xbd, 0xc1, 0x3e,
  0x4e, 0xe3, 0xde, 0x3e, 0x04, 0xbc, 0xf2, 0x3d, 0x40, 0xab, 0x3d, 0xbe,
  0xa6, 0xfe, 0xff, 0xff, 0x04, 0x00, 0x00, 0x00, 0x0c, 0x00, 0x00, 0x00,
  0xff, 0xff, 0xff, 0xff, 0x25, 0x00, 0x00, 0x00, 0x08, 0x00, 0x00, 0x00,
  0xbe, 0xfe, 0xff, 0xff, 0x04, 0x00, 0x00, 0x00, 0x0c, 0x00, 0x00, 0x00,
  0xff, 0xff, 0xff, 0xff, 0x29, 0x00, 0x00, 0x00, 0x08, 0x00, 0x00, 0x00,
  0xd6, 0xfe, 0xff, 0xff, 0x04, 0x00, 0x00, 0x00, 0x20, 0x00, 0x00, 0x00,
  0xd5, 0x5c, 0x19, 0x3e, 0x21, 0x8d, 0x05, 0x3e, 0x95, 0xd1, 0x13, 0x3e,
  0xc0, 0xb4, 0x3d, 0x3e, 0x53, 0xde, 0x9d, 0x3e, 0xe3, 0x8d, 0x98, 0xbe,
  0x66, 0x65, 0x7d, 0xbc, 0xb0, 0x2d, 0xb3, 0x3e, 0x02, 0xff, 0xff, 0xff,
  0x04, 0x00, 0x00, 0x00, 0x20, 0x00, 0x00, 0x00, 0x1b, 0xa4, 0x94, 0x3d,
  0x7f, 0x8f, 0x5f, 0x3e, 0xd3, 0x79, 0xab, 0xbe, 0xc8, 0xe5, 0x81, 0x3e,
  0xb5, 0xb0, 0xac, 0xbd, 0xff, 0xa1, 0x2b, 0xbd, 0x31, 0x1f, 0x67, 0x3e,
  0x52, 0xab, 0x68, 0xbe, 0xd0, 0xee, 0xff, 0xff, 0xd4, 0xee, 0xff, 0xff,
  0x0f, 0x00, 0x00, 0x00, 0x4d, 0x4c, 0x49, 0x52, 0x20, 0x43, 0x6f, 0x6e,
  0x76, 0x65, 0x72, 0x74, 0x65, 0x64, 0x2e, 0x00, 0x01, 0x00, 0x00, 0x00,
  0x14, 0x00, 0x00, 0x00, 0x00, 0x00, 0x0e, 0x00, 0x18, 0x00, 0x14, 0x00,
  0x10, 0x00, 0x0c, 0x00, 0x08, 0x00, 0x04, 0x00, 0x0e, 0x00, 0x00, 0x00,
  0x14, 0x00, 0x00, 0x00, 0x1c, 0x00, 0x00, 0x00, 0x70, 0x03, 0x00, 0x00,
  0x74, 0x03, 0x00, 0x00, 0x78, 0x03, 0x00, 0x00, 0x04, 0x00, 0x00, 0x00,
  0x6d, 0x61, 0x69, 0x6e, 0x00, 0x00, 0x00, 0x00, 0x0e, 0x00, 0x00, 0x00,
  0x28, 0x03, 0x00, 0x00, 0xc4, 0x02, 0x00, 0x00, 0x8c, 0x02, 0x00, 0x00,
  0x50, 0x02, 0x00, 0x00, 0x08, 0x02, 0x00, 0x00, 0xe0, 0x01, 0x00, 0x00,
  0xb0, 0x01, 0x00, 0x00, 0x5c, 0x01, 0x00, 0x00, 0x34, 0x01, 0x00, 0x00,
  0xfc, 0x00, 0x00, 0x00, 0xc0, 0x00, 0x00, 0x00, 0x70, 0x00, 0x00, 0x00,
  0x2c, 0x00, 0x00, 0x00, 0x04, 0x00, 0x00, 0x00, 0xae, 0xfd, 0xff, 0xff,
  0x0c, 0x00, 0x00, 0x00, 0x10, 0x00, 0x00, 0x00, 0x02, 0x00, 0x00, 0x00,
  0x01, 0x00, 0x00, 0x00, 0x1d, 0x00, 0x00, 0x00, 0x02, 0x00, 0x00, 0x00,
  0x19, 0x00, 0x00, 0x00, 0x1c, 0x00, 0x00, 0x00, 0xa2, 0xfd, 0xff, 0xff,
  0x1c, 0x00, 0x00, 0x00, 0x00, 0x00, 0x00, 0x3b, 0x1c, 0x00, 0x00, 0x00,
  0x20, 0x00, 0x00, 0x00, 0x07, 0x00, 0x00, 0x00, 0x00, 0x00, 0x06, 0x00,
  0x08, 0x00, 0x04, 0x00, 0x06, 0x00, 0x00, 0x00, 0x03, 0x00, 0x00, 0x00,
  0x01, 0x00, 0x00, 0x00, 0x1c, 0x00, 0x00, 0x00, 0x03, 0x00, 0x00, 0x00,
  0x1b, 0x00, 0x00, 0x00, 0x0b, 0x00, 0x00, 0x00, 0x0a, 0x00, 0x00, 0x00,
  0xe2, 0xfd, 0xff, 0xff, 0x24, 0x00, 0x00, 0x00, 0x00, 0x00, 0x00, 0x20,
  0x24, 0x00, 0x00, 0x00, 0x28, 0x00, 0x00, 0x00, 0x06, 0x00, 0x00, 0x00,
  0x00, 0x00, 0x0e, 0x00, 0x08, 0x00, 0x00, 0x00, 0x00, 0x00, 0x00, 0x00,
  0x00, 0x00, 0x04, 0x00, 0x0e, 0x00, 0x00, 0x00, 0x01, 0x00, 0x00, 0x00,
  0x01, 0x00, 0x00, 0x00, 0x1b, 0x00, 0x00, 0x00, 0x04, 0x00, 0x00, 0x00,
  0x1a, 0x00, 0x00, 0x00, 0x09, 0x00, 0x00, 0x00, 0x08, 0x00, 0x00, 0x00,
  0x08, 0x00, 0x00, 0x00, 0x2e, 0xfe, 0xff, 0xff, 0x1c, 0x00, 0x00, 0x00,
  0x00, 0x00, 0x00, 0x37, 0x1c, 0x00, 0x00, 0x00, 0x20, 0x00, 0x00, 0x00,
  0x05, 0x00, 0x00, 0x00, 0x00, 0x00, 0x06, 0x00, 0x08, 0x00, 0x07, 0x00,
  0x06, 0x00, 0x00, 0x00, 0x00, 0x00, 0x00, 0x02, 0x01, 0x00, 0x00, 0x00,
  0x1a, 0x00, 0x00, 0x00, 0x01, 0x00, 0x00, 0x00, 0x19, 0x00, 0x00, 0x00,
  0x66, 0xfe, 0xff, 0xff, 0x14, 0x00, 0x00, 0x00, 0x00, 0x00, 0x00, 0x08,
  0x10, 0x00, 0x00, 0x00, 0x14, 0x00, 0x00, 0x00, 0x04, 0x00, 0x00, 0x00,
  0x64, 0xf0, 0xff, 0xff, 0x01, 0x00, 0x00, 0x00, 0x19, 0x00, 0x00, 0x00,
  0x03, 0x00, 0x00, 0x00, 0x18, 0x00, 0x00, 0x00, 0x0f, 0x00, 0x00, 0x00,
  0x07, 0x00, 0x00, 0x00, 0xca, 0xfe, 0xff, 0xff, 0x0c, 0x00, 0x00, 0x00,
  0x10, 0x00, 0x00, 0x00, 0x02, 0x00, 0x00, 0x00, 0x01, 0x00, 0x00, 0x00,
  0x18, 0x00, 0x00, 0x00, 0x02, 0x00, 0x00, 0x00, 0x17, 0x00, 0x00, 0x00,
  0x0d, 0x00, 0x00, 0x00, 0xbe, 0xfe, 0xff, 0xff, 0x24, 0x00, 0x00, 0x00,
  0x00, 0x00, 0x00, 0x05, 0x34, 0x00, 0x00, 0x00, 0x38, 0x00, 0x00, 0x00,
  0x03, 0x00, 0x00, 0x00, 0x00, 0x00, 0x0e, 0x00, 0x18, 0x00, 0x17, 0x00,
  0x10, 0x00, 0x0c, 0x00, 0x08, 0x00, 0x04, 0x00, 0x0e, 0x00, 0x00, 0x00,
  0x03, 0x00, 0x00, 0x00, 0x01, 0x00, 0x00, 0x00, 0x03, 0x00, 0x00, 0x00,
  0x01, 0x00, 0x00, 0x00, 0x00, 0x00, 0x00, 0x01, 0x01, 0x00, 0x00, 0x00,
  0x17, 0x00, 0x00, 0x00, 0x01, 0x00, 0x00, 0x00, 0x16, 0x00, 0x00, 0x00,
  0xae, 0xfe, 0xff, 0xff, 0x10, 0x00, 0x00, 0x00, 0x00, 0x00, 0x00, 0x34,
  0x0c, 0x00, 0x00, 0x00, 0x10, 0x00, 0x00, 0x00, 0x08, 0xf1, 0xff, 0xff,
  0x01, 0x00, 0x00, 0x00, 0x16, 0x00, 0x00, 0x00, 0x02, 0x00, 0x00, 0x00,
  0x15, 0x00, 0x00, 0x00, 0x0c, 0x00, 0x00, 0x00, 0x6a, 0xff, 0xff, 0xff,
  0x0c, 0x00, 0x00, 0x00, 0x10, 0x00, 0x00, 0x00, 0x02, 0x00, 0x00, 0x00,
  0x01, 0x00, 0x00, 0x00, 0x15, 0x00, 0x00, 0x00, 0x02, 0x00, 0x00, 0x00,
  0x14, 0x00, 0x00, 0x00, 0x04, 0x00, 0x00, 0x00, 0x5e, 0xff, 0xff, 0xff,
  0x14, 0x00, 0x00, 0x00, 0x00, 0x00, 0x00, 0x01, 0x20, 0x00, 0x00, 0x00,
  0x24, 0x00, 0x00, 0x00, 0x01, 0x00, 0x00, 0x00, 0x50, 0xff, 0xff, 0xff,
  0x00, 0x00, 0x00, 0x01, 0x01, 0x00, 0x00, 0x00, 0x01, 0x00, 0x00, 0x00,
  0x00, 0x00, 0x00, 0x01, 0x01, 0x00, 0x00, 0x00, 0x14, 0x00, 0x00, 0x00,
  0x03, 0x00, 0x00, 0x00, 0x13, 0x00, 0x00, 0x00, 0x06, 0x00, 0x00, 0x00,
  0x02, 0x00, 0x00, 0x00, 0x42, 0xff, 0xff, 0xff, 0x10, 0x00, 0x00, 0x00,
  0x00, 0x00, 0x00, 0x34, 0x0c, 0x00, 0x00, 0x00, 0x10, 0x00, 0x00, 0x00,
  0x9c, 0xf1, 0xff, 0xff, 0x01, 0x00, 0x00, 0x00, 0x13, 0x00, 0x00, 0x00,
  0x02, 0x00, 0x00, 0x00, 0x12, 0x00, 0x00, 0x00, 0x0e, 0x00, 0x00, 0x00,
  0x00, 0x00, 0x0a, 0x00, 0x10, 0x00, 0x0c, 0x00, 0x08, 0x00, 0x04, 0x00,
  0x0a, 0x00, 0x00, 0x00, 0x0c, 0x00, 0x00, 0x00, 0x10, 0x00, 0x00, 0x00,
  0x02, 0x00, 0x00, 0x00, 0x01, 0x00, 0x00, 0x00, 0x12, 0x00, 0x00, 0x00,
  0x02, 0x00, 0x00, 0x00, 0x11, 0x00, 0x00, 0x00, 0x03, 0x00, 0x00, 0x00,
  0x00, 0x00, 0x0e, 0x00, 0x18, 0x00, 0x14, 0x00, 0x10, 0x00, 0x0c, 0x00,
  0x0b, 0x00, 0x04, 0x00, 0x0e, 0x00, 0x00, 0x00, 0x20, 0x00, 0x00, 0x00,
  0x00, 0x00, 0x00, 0x01, 0x2c, 0x00, 0x00, 0x00, 0x30, 0x00, 0x00, 0x00,
  0x01, 0x00, 0x00, 0x00, 0x0c, 0x00, 0x14, 0x00, 0x13, 0x00, 0x0c, 0x00,
  0x08, 0x00, 0x07, 0x00, 0x0c, 0x00, 0x00, 0x00, 0x00, 0x00, 0x00, 0x01,
  0x01, 0x00, 0x00, 0x00, 0x01, 0x00, 0x00, 0x00, 0x00, 0x00, 0x00, 0x01,
  0x01, 0x00, 0x00, 0x00, 0x11, 0x00, 0x00, 0x00, 0x03, 0x00, 0x00, 0x00,
  0x10, 0x00, 0x00, 0x00, 0x05, 0x00, 0x00, 0x00, 0x01, 0x00, 0x00, 0x00,
  0x00, 0x00, 0x0e, 0x00, 0x14, 0x00, 0x00, 0x00, 0x10, 0x00, 0x0c, 0x00,
  0x0b, 0x00, 0x04, 0x00, 0x0e, 0x00, 0x00, 0x00, 0x10, 0x00, 0x00, 0x00,
  0x00, 0x00, 0x00, 0x34, 0x0c, 0x00, 0x00, 0x00, 0x10, 0x00, 0x00, 0x00,
  0x68, 0xf2, 0xff, 0xff, 0x01, 0x00, 0x00, 0x00, 0x10, 0x00, 0x00, 0x00,
  0x02, 0x00, 0x00, 0x00, 0x00, 0x00, 0x00, 0x00, 0x0e, 0x00, 0x00, 0x00,
  0x01, 0x00, 0x00, 0x00, 0x1d, 0x00, 0x00, 0x00, 0x01, 0x00, 0x00, 0x00,
  0x00, 0x00, 0x00, 0x00, 0x1e, 0x00, 0x00, 0x00, 0x40, 0x0d, 0x00, 0x00,
  0xcc, 0x0c, 0x00, 0x00, 0x58, 0x0c, 0x00, 0x00, 0x00, 0x0c, 0x00, 0x00,
  0x90, 0x0b, 0x00, 0x00, 0x38, 0x0b, 0x00, 0x00, 0xe0, 0x0a, 0x00, 0x00,
  0x88, 0x0a, 0x00, 0x00, 0x28, 0x0a, 0x00, 0x00, 0xcc, 0x09, 0x00, 0x00,
  0x78, 0x09, 0x00, 0x00, 0x24, 0x09, 0x00, 0x00, 0xcc, 0x08, 0x00, 0x00,
  0x7c, 0x08, 0x00, 0x00, 0x24, 0x08, 0x00, 0x00, 0xd8, 0x07, 0x00, 0x00,
  0x60, 0x07, 0x00, 0x00, 0x48, 0x06, 0x00, 0x00, 0x74, 0x05, 0x00, 0x00,
  0xfc, 0x04, 0x00, 0x00, 0x04, 0x04, 0x00, 0x00, 0x30, 0x03, 0x00, 0x00,
  0xb8, 0x02, 0x00, 0x00, 0x40, 0x02, 0x00, 0x00, 0xe0, 0x01, 0x00, 0x00,
  0x64, 0x01, 0x00, 0x00, 0x14, 0x01, 0x00, 0x00, 0xc0, 0x00, 0x00, 0x00,
  0x68, 0x00, 0x00, 0x00, 0x04, 0x00, 0x00, 0x00, 0x4e, 0xf3, 0xff, 0xff,
  0x00, 0x00, 0x00, 0x01, 0x14, 0x00, 0x00, 0x00, 0x20, 0x00, 0x00, 0x00,
  0x20, 0x00, 0x00, 0x00, 0x1e, 0x00, 0x00, 0x00, 0x38, 0x00, 0x00, 0x00,
  0x03, 0x00, 0x00, 0x00, 0xff, 0xff, 0xff, 0xff, 0x01, 0x00, 0x00, 0x00,
  0x09, 0x00, 0x00, 0x00, 0x38, 0xf3, 0xff, 0xff, 0x19, 0x00, 0x00, 0x00,
  0x53, 0x74, 0x61, 0x74, 0x65, 0x66, 0x75, 0x6c, 0x50, 0x61, 0x72, 0x74,
  0x69, 0x74, 0x69, 0x6f, 0x6e, 0x65, 0x64, 0x43, 0x61, 0x6c, 0x6c, 0x3a,
  0x30, 0x00, 0x00, 0x00, 0x03, 0x00, 0x00, 0x00, 0x01, 0x00, 0x00, 0x00,
  0x01, 0x00, 0x00, 0x00, 0x09, 0x00, 0x00, 0x00, 0xe2, 0xf4, 0xff, 0xff,
  0x00, 0x00, 0x00, 0x01, 0x14, 0x00, 0x00, 0x00, 0x14, 0x00, 0x00, 0x00,
  0x1d, 0x00, 0x00, 0x00, 0x00, 0x00, 0x00, 0x02, 0x34, 0x00, 0x00, 0x00,
  0x88, 0xf3, 0xff, 0xff, 0x24, 0x00, 0x00, 0x00, 0x73, 0x65, 0x71, 0x75,
  0x65, 0x6e, 0x74, 0x69, 0x61, 0x6c, 0x5f, 0x31, 0x2f, 0x72, 0x65, 0x73,
  0x68, 0x61, 0x70, 0x65, 0x5f, 0x31, 0x2f, 0x52, 0x65, 0x73, 0x68, 0x61,
  0x70, 0x65, 0x2f, 0x73, 0x68, 0x61, 0x70, 0x65, 0x00, 0x00, 0x00, 0x00,
  0x01, 0x00, 0x00, 0x00, 0x03, 0x00, 0x00, 0x00, 0x36, 0xf5, 0xff, 0xff,
  0x00, 0x00, 0x00, 0x01, 0x14, 0x00, 0x00, 0x00, 0x14, 0x00, 0x00, 0x00,
  0x1c, 0x00, 0x00, 0x00, 0x00, 0x00, 0x00, 0x02, 0x34, 0x00, 0x00, 0x00,
  0xdc, 0xf3, 0xff, 0xff, 0x24, 0x00, 0x00, 0x00, 0x73, 0x65, 0x71, 0x75,
  0x65, 0x6e, 0x74, 0x69, 0x61, 0x6c, 0x5f, 0x31, 0x2f, 0x72, 0x65, 0x73,
  0x68, 0x61, 0x70, 0x65, 0x5f, 0x31, 0x2f, 0x73, 0x74, 0x72, 0x69, 0x64,
  0x65, 0x64, 0x5f, 0x73, 0x6c, 0x69, 0x63, 0x65, 0x00, 0x00, 0x00, 0x00,
  0x00, 0x00, 0x00, 0x00, 0x86, 0xf5, 0xff, 0xff, 0x00, 0x00, 0x00, 0x01,
  0x14, 0x00, 0x00, 0x00, 0x14, 0x00, 0x00, 0x00, 0x1b, 0x00, 0x00, 0x00,
  0x00, 0x00, 0x00, 0x02, 0x2c, 0x00, 0x00, 0x00, 0x2c, 0xf4, 0xff, 0xff,
  0x1c, 0x00, 0x00, 0x00, 0x73, 0x65, 0x71, 0x75, 0x65, 0x6e, 0x74, 0x69,
  0x61, 0x6c, 0x5f, 0x31, 0x2f, 0x72, 0x65, 0x73, 0x68, 0x61, 0x70, 0x65,
  0x5f, 0x31, 0x2f, 0x53, 0x68, 0x61, 0x70, 0x65, 0x00, 0x00, 0x00, 0x00,
  0x01, 0x00, 0x00, 0x00, 0x02, 0x00, 0x00, 0x00, 0x9e, 0xf4, 0xff, 0xff,
  0x00, 0x00, 0x00, 0x01, 0x14, 0x00, 0x00, 0x00, 0x1c, 0x00, 0x00, 0x00,
  0x1c, 0x00, 0x00, 0x00, 0x1a, 0x00, 0x00, 0x00, 0x54, 0x00, 0x00, 0x00,
  0x02, 0x00, 0x00, 0x00, 0xff, 0xff, 0xff, 0xff, 0x09, 0x00, 0x00, 0x00,
  0x84, 0xf4, 0xff, 0xff, 0x38, 0x00, 0x00, 0x00, 0x73, 0x65, 0x71, 0x75,
  0x65, 0x6e, 0x74, 0x69, 0x61, 0x6c, 0x5f, 0x31, 0x2f, 0x64, 0x65, 0x6e,
  0x73, 0x65, 0x5f, 0x31, 0x2f, 0x4d, 0x61, 0x74, 0x4d, 0x75, 0x6c, 0x3b,
  0x73, 0x65, 0x71, 0x75, 0x65, 0x6e, 0x74, 0x69, 0x61, 0x6c, 0x5f, 0x31,
  0x2f, 0x64, 0x65, 0x6e, 0x73, 0x65, 0x5f, 0x31, 0x2f, 0x42, 0x69, 0x61,
  0x73, 0x41, 0x64, 0x64, 0x00, 0x00, 0x00, 0x00, 0x02, 0x00, 0x00, 0x00,
  0x01, 0x00, 0x00, 0x00, 0x09, 0x00, 0x00, 0x00, 0x16, 0xf5, 0xff, 0xff,
  0x00, 0x00, 0x00, 0x01, 0x14, 0x00, 0x00, 0x00, 0x1c, 0x00, 0x00, 0x00,
  0x1c, 0x00, 0x00, 0x00, 0x19, 0x00, 0x00, 0x00, 0x38, 0x00, 0x00, 0x00,
  0x02, 0x00, 0x00, 0x00, 0xff, 0xff, 0xff, 0xff, 0x60, 0x00, 0x00, 0x00,
  0xfc, 0xf4, 0xff, 0xff, 0x1e, 0x00, 0x00, 0x00, 0x73, 0x65, 0x71, 0x75,
  0x65, 0x6e, 0x74, 0x69, 0x61, 0x6c, 0x5f, 0x31, 0x2f, 0x66, 0x6c, 0x61,
  0x74, 0x74, 0x65, 0x6e, 0x5f, 0x31, 0x2f, 0x52, 0x65, 0x73, 0x68, 0x61,
  0x70, 0x65, 0x00, 0x00, 0x02, 0x00, 0x00, 0x00, 0x01, 0x00, 0x00, 0x00,
  0x60, 0x00, 0x00, 0x00, 0x72, 0xf5, 0xff, 0xff, 0x00, 0x00, 0x00, 0x01,
  0x14, 0x00, 0x00, 0x00, 0x24, 0x00, 0x00, 0x00, 0x24, 0x00, 0x00, 0x00,
  0x18, 0x00, 0x00, 0x00, 0x48, 0x00, 0x00, 0x00, 0x04, 0x00, 0x00, 0x00,
  0xff, 0xff, 0xff, 0xff, 0x0c, 0x00, 0x00, 0x00, 0x01, 0x00, 0x00, 0x00,
  0x08, 0x00, 0x00, 0x00, 0x60, 0xf5, 0xff, 0xff, 0x24, 0x00, 0x00, 0x00,
  0x73, 0x65, 0x71, 0x75, 0x65, 0x6e, 0x74, 0x69, 0x61, 0x6c, 0x5f, 0x31,
  0x2f, 0x6d, 0x61, 0x78, 0x5f, 0x70, 0x6f, 0x6f, 0x6c, 0x69, 0x6e, 0x67,
  0x31, 0x64, 0x5f, 0x31, 0x2f, 0x4d, 0x61, 0x78, 0x50, 0x6f, 0x6f, 0x6c,
  0x00, 0x00, 0x00, 0x00, 0x04, 0x00, 0x00, 0x00, 0x01, 0x00, 0x00, 0x00,
  0x0c, 0x00, 0x00, 0x00, 0x01, 0x00, 0x00, 0x00, 0x08, 0x00, 0x00, 0x00,
  0xe6, 0xf5, 0xff, 0xff, 0x00, 0x00, 0x00, 0x01, 0x14, 0x00, 0x00, 0x00,
  0x24, 0x00, 0x00, 0x00, 0x24, 0x00, 0x00, 0x00, 0x17, 0x00, 0x00, 0x00,
  0x48, 0x00, 0x00, 0x00, 0x04, 0x00, 0x00, 0x00, 0xff, 0xff, 0xff, 0xff,
  0x25, 0x00, 0x00, 0x00, 0x01, 0x00, 0x00, 0x00, 0x08, 0x00, 0x00, 0x00,
  0xd4, 0xf5, 0xff, 0xff, 0x27, 0x00, 0x00, 0x00, 0x73, 0x65, 0x71, 0x75,
  0x65, 0x6e, 0x74, 0x69, 0x61, 0x6c, 0x5f, 0x31, 0x2f, 0x6d, 0x61, 0x78,
  0x5f, 0x70, 0x6f, 0x6f, 0x6c, 0x69, 0x6e, 0x67, 0x31, 0x64, 0x5f, 0x31,
  0x2f, 0x45, 0x78, 0x70, 0x61, 0x6e, 0x64, 0x44, 0x69, 0x6d, 0x73, 0x00,
  0x04, 0x00, 0x00, 0x00, 0x01, 0x00, 0x00, 0x00, 0x25, 0x00, 0x00, 0x00,
  0x01, 0x00, 0x00, 0x00, 0x08, 0x00, 0x00, 0x00, 0x5a, 0xf6, 0xff, 0xff,
  0x00, 0x00, 0x00, 0x01, 0x14, 0x00, 0x00, 0x00, 0x20, 0x00, 0x00, 0x00,
  0x20, 0x00, 0x00, 0x00, 0x16, 0x00, 0x00, 0x00, 0xa8, 0x00, 0x00, 0x00,
  0x03, 0x00, 0x00, 0x00, 0xff, 0xff, 0xff, 0xff, 0x25, 0x00, 0x00, 0x00,
  0x08, 0x00, 0x00, 0x00, 0x44, 0xf6, 0xff, 0xff, 0x8a, 0x00, 0x00, 0x00,
  0x73, 0x65, 0x71, 0x75, 0x65, 0x6e, 0x74, 0x69, 0x61, 0x6c, 0x5f, 0x31,
  0x2f, 0x63, 0x6f, 0x6e, 0x76, 0x31, 0x64, 0x5f, 0x33, 0x2f, 0x52, 0x65,
  0x6c, 0x75, 0x3b, 0x73, 0x65, 0x71, 0x75, 0x65, 0x6e, 0x74, 0x69, 0x61,
  0x6c, 0x5f, 0x31, 0x2f, 0x63, 0x6f, 0x6e, 0x76, 0x31, 0x64, 0x5f, 0x33,
  0x2f, 0x42, 0x69, 0x61, 0x73, 0x41, 0x64, 0x64, 0x3b, 0x73, 0x65, 0x71,
  0x75, 0x65, 0x6e, 0x74, 0x69, 0x61, 0x6c, 0x5f, 0x31, 0x2f, 0x63, 0x6f,
  0x6e, 0x76, 0x31, 0x64, 0x5f, 0x33, 0x2f, 0x43, 0x6f, 0x6e, 0x76, 0x31,
  0x44, 0x2f, 0x53, 0x71, 0x75, 0x65, 0x65, 0x7a, 0x65, 0x3b, 0x73, 0x65,
  0x71, 0x75, 0x65, 0x6e, 0x74, 0x69, 0x61, 0x6c, 0x5f, 0x31, 0x2f, 0x63,
  0x6f, 0x6e, 0x76, 0x31, 0x64, 0x5f, 0x33, 0x2f, 0x42, 0x69, 0x61, 0x73,
  0x41, 0x64, 0x64, 0x2f, 0x52, 0x65, 0x61, 0x64, 0x56, 0x61, 0x72, 0x69,
  0x61, 0x62, 0x6c, 0x65, 0x4f, 0x70, 0x00, 0x00, 0x03, 0x00, 0x00, 0x00,
  0x01, 0x00, 0x00, 0x00, 0x25, 0x00, 0x00, 0x00, 0x08, 0x00, 0x00, 0x00,
  0x2a, 0xf7, 0xff, 0xff, 0x00, 0x00, 0x00, 0x01, 0x14, 0x00, 0x00, 0x00,
  0x24, 0x00, 0x00, 0x00, 0x24, 0x00, 0x00, 0x00, 0x15, 0x00, 0x00, 0x00,
  0xc8, 0x00, 0x00, 0x00, 0x04, 0x00, 0x00, 0x00, 0xff, 0xff, 0xff, 0xff,
  0x01, 0x00, 0x00, 0x00, 0x25, 0x00, 0x00, 0x00, 0x08, 0x00, 0x00, 0x00,
  0x18, 0xf7, 0xff, 0xff, 0xa7, 0x00, 0x00, 0x00, 0x73, 0x65, 0x71, 0x75,
  0x65, 0x6e, 0x74, 0x69, 0x61, 0x6c, 0x5f, 0x31, 0x2f, 0x63, 0x6f, 0x6e,
  0x76, 0x31, 0x64, 0x5f, 0x33, 0x2f, 0x52, 0x65, 0x6c, 0x75, 0x3b, 0x73,
  0x65, 0x71, 0x75, 0x65, 0x6e, 0x74, 0x69, 0x61, 0x6c, 0x5f, 0x31, 0x2f,
  0x63, 0x6f, 0x6e, 0x76, 0x31, 0x64, 0x5f, 0x33, 0x2f, 0x42, 0x69, 0x61,
  0x73, 0x41, 0x64, 0x64, 0x3b, 0x73, 0x65, 0x71, 0x75, 0x65, 0x6e, 0x74,
  0x69, 0x61, 0x6c, 0x5f, 0x31, 0x2f, 0x63, 0x6f, 0x6e, 0x76, 0x31, 0x64,
  0x5f, 0x33, 0x2f, 0x43, 0x6f, 0x6e, 0x76, 0x31, 0x44, 0x2f, 0x53, 0x71,
  0x75, 0x65, 0x65, 0x7a, 0x65, 0x3b, 0x73, 0x65, 0x71, 0x75, 0x65, 0x6e,
  0x74, 0x69, 0x61, 0x6c, 0x5f, 0x31, 0x2f, 0x63, 0x6f, 0x6e, 0x76, 0x31,
  0x64, 0x5f, 0x33, 0x2f, 0x42, 0x69, 0x61, 0x73, 0x41, 0x64, 0x64, 0x2f,
  0x52, 0x65, 0x61, 0x64, 0x56, 0x61, 0x72, 0x69, 0x61, 0x62, 0x6c, 0x65,
  0x4f, 0x70, 0x3b, 0x73, 0x65, 0x71, 0x75, 0x65, 0x6e, 0x74, 0x69, 0x61,
  0x6c, 0x5f, 0x31, 0x2f, 0x63, 0x6f, 0x6e, 0x76, 0x31, 0x64, 0x5f, 0x33,
  0x2f, 0x43, 0x6f, 0x6e, 0x76, 0x31, 0x44, 0x00, 0x04, 0x00, 0x00, 0x00,
  0x01, 0x00, 0x00, 0x00, 0x01, 0x00, 0x00, 0x00, 0x25, 0x00, 0x00, 0x00,
  0x08, 0x00, 0x00, 0x00, 0x1e, 0xf8, 0xff, 0xff, 0x00, 0x00, 0x00, 0x01,
  0x14, 0x00, 0x00, 0x00, 0x24, 0x00, 0x00, 0x00, 0x24, 0x00, 0x00, 0x00,
  0x14, 0x00, 0x00, 0x00, 0x48, 0x00, 0x00, 0x00, 0x04, 0x00, 0x00, 0x00,
  0xff, 0xff, 0xff, 0xff, 0x01, 0x00, 0x00, 0x00, 0x29, 0x00, 0x00, 0x00,
  0x08, 0x00, 0x00, 0x00, 0x0c, 0xf8, 0xff, 0xff, 0x27, 0x00, 0x00, 0x00,
  0x73, 0x65, 0x71, 0x75, 0x65, 0x6e, 0x74, 0x69, 0x61, 0x6c, 0x5f, 0x31,
  0x2f, 0x63, 0x6f, 0x6e, 0x76, 0x31, 0x64, 0x5f, 0x33, 0x2f, 0x43, 0x6f,
  0x6e, 0x76, 0x31, 0x44, 0x2f, 0x45, 0x78, 0x70, 0x61, 0x6e, 0x64, 0x44,
  0x69, 0x6d, 0x73, 0x00, 0x04, 0x00, 0x00, 0x00, 0x01, 0x00, 0x00, 0x00,
  0x01, 0x00, 0x00, 0x00, 0x29, 0x00, 0x00, 0x00, 0x08, 0x00, 0x00, 0x00,
  0x92, 0xf8, 0xff, 0xff, 0x00, 0x00, 0x00, 0x01, 0x14, 0x00, 0x00, 0x00,
  0x20, 0x00, 0x00, 0x00, 0x20, 0x00, 0x00, 0x00, 0x13, 0x00, 0x00, 0x00,
  0xa8, 0x00, 0x00, 0x00, 0x03, 0x00, 0x00, 0x00, 0xff, 0xff, 0xff, 0xff,
  0x29, 0x00, 0x00, 0x00, 0x08, 0x00, 0x00, 0x00, 0x7c, 0xf8, 0xff, 0xff,
  0x8a, 0x00, 0x00, 0x00, 0x73, 0x65, 0x71, 0x75, 0x65, 0x6e, 0x74, 0x69,
  0x61, 0x6c, 0x5f, 0x31, 0x2f, 0x63, 0x6f, 0x6e, 0x76, 0x31, 0x64, 0x5f,
  0x32, 0x2f, 0x52, 0x65, 0x6c, 0x75, 0x3b, 0x73, 0x65, 0x71, 0x75, 0x65,
  0x6e, 0x74, 0x69, 0x61, 0x6c, 0x5f, 0x31, 0x2f, 0x63, 0x6f, 0x6e, 0x76,
  0x31, 0x64, 0x5f, 0x32, 0x2f, 0x42, 0x69, 0x61, 0x73, 0x41, 0x64, 0x64,
  0x3b, 0x73, 0x65, 0x71, 0x75, 0x65, 0x6e, 0x74, 0x69, 0x61, 0x6c, 0x5f,
  0x31, 0x2f, 0x63, 0x6f, 0x6e, 0x76, 0x31, 0x64, 0x5f, 0x32, 0x2f, 0x43,
  0x6f, 0x6e, 0x76, 0x31, 0x44, 0x2f, 0x53, 0x71, 0x75, 0x65, 0x65, 0x7a,
  0x65, 0x3b, 0x73, 0x65, 0x71, 0x75, 0x65, 0x6e, 0x74, 0x69, 0x61, 0x6c,
  0x5f, 0x31, 0x2f, 0x63, 0x6f, 0x6e, 0x76, 0x31, 0x64, 0x5f, 0x32, 0x2f,
  0x42, 0x69, 0x61, 0x73, 0x41, 0x64, 0x64, 0x2f, 0x52, 0x65, 0x61, 0x64,
  0x56, 0x61, 0x72, 0x69, 0x61, 0x62, 0x6c, 0x65, 0x4f, 0x70, 0x00, 0x00,
  0x03, 0x00, 0x00, 0x00, 0x01, 0x00, 0x00, 0x00, 0x29, 0x00, 0x00, 0x00,
  0x08, 0x00, 0x00, 0x00, 0x62, 0xf9, 0xff, 0xff, 0x00, 0x00, 0x00, 0x01,
  0x14, 0x00, 0x00, 0x00, 0x24, 0x00, 0x00, 0x00, 0x24, 0x00, 0x00, 0x00,
  0x12, 0x00, 0x00, 0x00, 0xe8, 0x00, 0x00, 0x00, 0x04, 0x00, 0x00, 0x00,
  0xff, 0xff, 0xff, 0xff, 0x01, 0x00, 0x00, 0x00, 0x29, 0x00, 0x00, 0x00,
  0x08, 0x00, 0x00, 0x00, 0x50, 0xf9, 0xff, 0xff, 0xc4, 0x00, 0x00, 0x00,
  0x73, 0x65, 0x71, 0x75, 0x65, 0x6e, 0x74, 0x69, 0x61, 0x6c, 0x5f, 0x31,
  0x2f, 0x63, 0x6f, 0x6e, 0x76, 0x31, 0x64, 0x5f, 0x32, 0x2f, 0x52, 0x65,
  0x6c, 0x75, 0x3b, 0x73, 0x65, 0x71, 0x75, 0x65, 0x6e, 0x74, 0x69, 0x61,
  0x6c, 0x5f, 0x31, 0x2f, 0x63, 0x6f, 0x6e, 0x76, 0x31, 0x64, 0x5f, 0x32,
  0x2f, 0x42, 0x69, 0x61, 0x73, 0x41, 0x64, 0x64, 0x3b, 0x73, 0x65, 0x71,
  0x75, 0x65, 0x6e, 0x74, 0x69, 0x61, 0x6c, 0x5f, 0x31, 0x2f, 0x63, 0x6f,
  0x6e, 0x76, 0x31, 0x64, 0x5f, 0x32, 0x2f, 0x43, 0x6f, 0x6e, 0x76, 0x31,
  0x44, 0x2f, 0x53, 0x71, 0x75, 0x65, 0x65, 0x7a, 0x65, 0x3b, 0x73, 0x65,
  0x71, 0x75, 0x65, 0x6e, 0x74, 0x69, 0x61, 0x6c, 0x5f, 0x31, 0x2f, 0x63,
  0x6f, 0x6e, 0x76, 0x31, 0x64, 0x5f, 0x32, 0x2f, 0x42, 0x69, 0x61, 0x73,
  0x41, 0x64, 0x64, 0x2f, 0x52, 0x65, 0x61, 0x64, 0x56, 0x61, 0x72, 0x69,
  0x61, 0x62, 0x6c, 0x65, 0x4f, 0x70, 0x3b, 0x73, 0x65, 0x71, 0x75, 0x65,
  0x6e, 0x74, 0x69, 0x61, 0x6c, 0x5f, 0x31, 0x2f, 0x63, 0x6f, 0x6e, 0x76,
  0x31, 0x64, 0x5f, 0x33, 0x2f, 0x43, 0x6f, 0x6e, 0x76, 0x31, 0x44, 0x3b,
  0x73, 0x65, 0x71, 0x75, 0x65, 0x6e, 0x74, 0x69, 0x61, 0x6c, 0x5f, 0x31,
  0x2f, 0x63, 0x6f, 0x6e, 0x76, 0x31, 0x64, 0x5f, 0x32, 0x2f, 0x43, 0x6f,
  0x6e, 0x76, 0x31, 0x44, 0x00, 0x00, 0x00, 0x00, 0x04, 0x00, 0x00, 0x00,
  0x01, 0x00, 0x00, 0x00, 0x01, 0x00, 0x00, 0x00, 0x29, 0x00, 0x00, 0x00,
  0x08, 0x00, 0x00, 0x00, 0x76, 0xfa, 0xff, 0xff, 0x00, 0x00, 0x00, 0x01,
  0x14, 0x00, 0x00, 0x00, 0x24, 0x00, 0x00, 0x00, 0x24, 0x00, 0x00, 0x00,
  0x11, 0x00, 0x00, 0x00, 0x48, 0x00, 0x00, 0x00, 0x04, 0x00, 0x00, 0x00,
  0xff, 0xff, 0xff, 0xff, 0x01, 0x00, 0x00, 0x00, 0x2d, 0x00, 0x00, 0x00,
  0x09, 0x00, 0x00, 0x00, 0x64, 0xfa, 0xff, 0xff, 0x27, 0x00, 0x00, 0x00,
  0x73, 0x65, 0x71, 0x75, 0x65, 0x6e, 0x74, 0x69, 0x61, 0x6c, 0x5f, 0x31,
  0x2f, 0x63, 0x6f, 0x6e, 0x76, 0x31, 0x64, 0x5f, 0x32, 0x2f, 0x43, 0x6f,
  0x6e, 0x76, 0x31, 0x44, 0x2f, 0x45, 0x78, 0x70, 0x61, 0x6e, 0x64, 0x44,
  0x69, 0x6d, 0x73, 0x00, 0x04, 0x00, 0x00, 0x00, 0x01, 0x00, 0x00, 0x00,
  0x01, 0x00, 0x00, 0x00, 0x2d, 0x00, 0x00, 0x00, 0x09, 0x00, 0x00, 0x00,
  0x5a, 0xfb, 0xff, 0xff, 0x00, 0x00, 0x00, 0x01, 0x10, 0x00, 0x00, 0x00,
  0x10, 0x00, 0x00, 0x00, 0x10, 0x00, 0x00, 0x00, 0x28, 0x00, 0x00, 0x00,
  0xc0, 0xfa, 0xff, 0xff, 0x1b, 0x00, 0x00, 0x00, 0x73, 0x65, 0x71, 0x75,
  0x65, 0x6e, 0x74, 0x69, 0x61, 0x6c, 0x5f, 0x31, 0x2f, 0x64, 0x65, 0x6e,
  0x73, 0x65, 0x5f, 0x31, 0x2f, 0x4d, 0x61, 0x74, 0x4d, 0x75, 0x6c, 0x00,
  0x02, 0x00, 0x00, 0x00, 0x09, 0x00, 0x00, 0x00, 0x60, 0x00, 0x00, 0x00,
  0x66, 0xfc, 0xff, 0xff, 0x00, 0x00, 0x00, 0x01, 0x14, 0x00, 0x00, 0x00,
  0x14, 0x00, 0x00, 0x00, 0x0f, 0x00, 0x00, 0x00, 0x00, 0x00, 0x00, 0x02,
  0x38, 0x00, 0x00, 0x00, 0x0c, 0xfb, 0xff, 0xff, 0x2b, 0x00, 0x00, 0x00,
  0x73, 0x65, 0x71, 0x75, 0x65, 0x6e, 0x74, 0x69, 0x61, 0x6c, 0x5f, 0x31,
  0x2f, 0x63, 0x6f, 0x6e, 0x76, 0x31, 0x64, 0x5f, 0x32, 0x2f, 0x43, 0x6f,
  0x6e, 0x76, 0x31, 0x44, 0x2f, 0x45, 0x78, 0x70, 0x61, 0x6e, 0x64, 0x44,
  0x69, 0x6d, 0x73, 0x2f, 0x64, 0x69, 0x6d, 0x00, 0x00, 0x00, 0x00, 0x00,
  0xba, 0xfc, 0xff, 0xff, 0x00, 0x00, 0x00, 0x01, 0x14, 0x00, 0x00, 0x00,
  0x14, 0x00, 0x00, 0x00, 0x0e, 0x00, 0x00, 0x00, 0x00, 0x00, 0x00, 0x02,
  0x2c, 0x00, 0x00, 0x00, 0x60, 0xfb, 0xff, 0xff, 0x1c, 0x00, 0x00, 0x00,
  0x73, 0x65, 0x71, 0x75, 0x65, 0x6e, 0x74, 0x69, 0x61, 0x6c, 0x5f, 0x31,
  0x2f, 0x66, 0x6c, 0x61, 0x74, 0x74, 0x65, 0x6e, 0x5f, 0x31, 0x2f, 0x43,
  0x6f, 0x6e, 0x73, 0x74, 0x00, 0x00, 0x00, 0x00, 0x01, 0x00, 0x00, 0x00,
  0x02, 0x00, 0x00, 0x00, 0x06, 0xfd, 0xff, 0xff, 0x00, 0x00, 0x00, 0x01,
  0x14, 0x00, 0x00, 0x00, 0x14, 0x00, 0x00, 0x00, 0x0d, 0x00, 0x00, 0x00,
  0x00, 0x00, 0x00, 0x02, 0x38, 0x00, 0x00, 0x00, 0xac, 0xfb, 0xff, 0xff,
  0x2b, 0x00, 0x00, 0x00, 0x73, 0x65, 0x71, 0x75, 0x65, 0x6e, 0x74, 0x69,
  0x61, 0x6c, 0x5f, 0x31, 0x2f, 0x6d, 0x61, 0x78, 0x5f, 0x70, 0x6f, 0x6f,
  0x6c, 0x69, 0x6e, 0x67, 0x31, 0x64, 0x5f, 0x31, 0x2f, 0x45, 0x78, 0x70,
  0x61, 0x6e, 0x64, 0x44, 0x69, 0x6d, 0x73, 0x2f, 0x64, 0x69, 0x6d, 0x00,
  0x00, 0x00, 0x00, 0x00, 0x5a, 0xfd, 0xff, 0xff, 0x00, 0x00, 0x00, 0x01,
  0x14, 0x00, 0x00, 0x00, 0x14, 0x00, 0x00, 0x00, 0x09, 0x00, 0x00, 0x00,
  0x00, 0x00, 0x00, 0x02, 0x34, 0x00, 0x00, 0x00, 0x00, 0xfc, 0xff, 0xff,
  0x26, 0x00, 0x00, 0x00, 0x73, 0x65, 0x71, 0x75, 0x65, 0x6e, 0x74, 0x69,
  0x61, 0x6c, 0x5f, 0x31, 0x2f, 0x72, 0x65, 0x73, 0x68, 0x61, 0x70, 0x65,
  0x5f, 0x31, 0x2f, 0x52, 0x65, 0x73, 0x68, 0x61, 0x70, 0x65, 0x2f, 0x73,
  0x68, 0x61, 0x70, 0x65, 0x2f, 0x31, 0x00, 0x00, 0x00, 0x00, 0x00, 0x00,
  0xaa, 0xfd, 0xff, 0xff, 0x00, 0x00, 0x00, 0x01, 0x14, 0x00, 0x00, 0x00,
  0x14, 0x00, 0x00, 0x00, 0x0b, 0x00, 0x00, 0x00, 0x00, 0x00, 0x00, 0x02,
  0x34, 0x00, 0x00, 0x00, 0x50, 0xfc, 0xff, 0xff, 0x26, 0x00, 0x00, 0x00,
  0x73, 0x65, 0x71, 0x75, 0x65, 0x6e, 0x74, 0x69, 0x61, 0x6c, 0x5f, 0x31,
  0x2f, 0x72, 0x65, 0x73, 0x68, 0x61, 0x70, 0x65, 0x5f, 0x31, 0x2f, 0x52,
  0x65, 0x73, 0x68, 0x61, 0x70, 0x65, 0x2f, 0x73, 0x68, 0x61, 0x70, 0x65,
  0x2f, 0x32, 0x00, 0x00, 0x00, 0x00, 0x00, 0x00, 0xfa, 0xfd, 0xff, 0xff,
  0x00, 0x00, 0x00, 0x01, 0x14, 0x00, 0x00, 0x00, 0x14, 0x00, 0x00, 0x00,
  0x0a, 0x00, 0x00, 0x00, 0x00, 0x00, 0x00, 0x02, 0x38, 0x00, 0x00, 0x00,
  0xa0, 0xfc, 0xff, 0xff, 0x2a, 0x00, 0x00, 0x00, 0x73, 0x65, 0x71, 0x75,
  0x65, 0x6e, 0x74, 0x69, 0x61, 0x6c, 0x5f, 0x31, 0x2f, 0x72, 0x65, 0x73,
  0x68, 0x61, 0x70, 0x65, 0x5f, 0x31, 0x2f, 0x73, 0x74, 0x72, 0x69, 0x64,
  0x65, 0x64, 0x5f, 0x73, 0x6c, 0x69, 0x63, 0x65, 0x2f, 0x73, 0x74, 0x61,
  0x63, 0x6b, 0x00, 0x00, 0x01, 0x00, 0x00, 0x00, 0x01, 0x00, 0x00, 0x00,
  0x52, 0xfe, 0xff, 0xff, 0x00, 0x00, 0x00, 0x01, 0x14, 0x00, 0x00, 0x00,
  0x14, 0x00, 0x00, 0x00, 0x09, 0x00, 0x00, 0x00, 0x00, 0x00, 0x00, 0x02,
  0x3c, 0x00, 0x00, 0x00, 0xf8, 0xfc, 0xff, 0xff, 0x2c, 0x00, 0x00, 0x00,
  0x73, 0x65, 0x71, 0x75, 0x65, 0x6e, 0x74, 0x69, 0x61, 0x6c, 0x5f, 0x31,
  0x2f, 0x72, 0x65, 0x73, 0x68, 0x61, 0x70, 0x65, 0x5f, 0x31, 0x2f, 0x73,
  0x74, 0x72, 0x69, 0x64, 0x65, 0x64, 0x5f, 0x73, 0x6c, 0x69, 0x63, 0x65,
  0x2f, 0x73, 0x74, 0x61, 0x63, 0x6b, 0x5f, 0x31, 0x00, 0x00, 0x00, 0x00,
  0x01, 0x00, 0x00, 0x00, 0x01, 0x00, 0x00, 0x00, 0xea, 0xfd, 0xff, 0xff,
  0x00, 0x00, 0x00, 0x01, 0x10, 0x00, 0x00, 0x00, 0x10, 0x00, 0x00, 0x00,
  0x08, 0x00, 0x00, 0x00, 0x38, 0x00, 0x00, 0x00, 0x50, 0xfd, 0xff, 0xff,
  0x2b, 0x00, 0x00, 0x00, 0x73, 0x65, 0x71, 0x75, 0x65, 0x6e, 0x74, 0x69,
  0x61, 0x6c, 0x5f, 0x31, 0x2f, 0x64, 0x65, 0x6e, 0x73, 0x65, 0x5f, 0x31,
  0x2f, 0x42, 0x69, 0x61, 0x73, 0x41, 0x64, 0x64, 0x2f, 0x52, 0x65, 0x61,
  0x64, 0x56, 0x61, 0x72, 0x69, 0x61, 0x62, 0x6c, 0x65, 0x4f, 0x70, 0x00,
  0x01, 0x00, 0x00, 0x00, 0x09, 0x00, 0x00, 0x00, 0x3e, 0xfe, 0xff, 0xff,
  0x00, 0x00, 0x00, 0x01, 0x10, 0x00, 0x00, 0x00, 0x10, 0x00, 0x00, 0x00,
  0x07, 0x00, 0x00, 0x00, 0x2c, 0x00, 0x00, 0x00, 0xa4, 0xfd, 0xff, 0xff,
  0x1c, 0x00, 0x00, 0x00, 0x73, 0x65, 0x71, 0x75, 0x65, 0x6e, 0x74, 0x69,
  0x61, 0x6c, 0x5f, 0x31, 0x2f, 0x63, 0x6f, 0x6e, 0x76, 0x31, 0x64, 0x5f,
  0x33, 0x2f, 0x43, 0x6f, 0x6e, 0x76, 0x31, 0x44, 0x00, 0x00, 0x00, 0x00,
  0x04, 0x00, 0x00, 0x00, 0x08, 0x00, 0x00, 0x00, 0x01, 0x00, 0x00, 0x00,
  0x05, 0x00, 0x00, 0x00, 0x08, 0x00, 0x00, 0x00, 0x92, 0xfe, 0xff, 0xff,
  0x00, 0x00, 0x00, 0x01, 0x10, 0x00, 0x00, 0x00, 0x10, 0x00, 0x00, 0x00,
  0x06, 0x00, 0x00, 0x00, 0x2c, 0x00, 0x00, 0x00, 0xf8, 0xfd, 0xff, 0xff,
  0x1c, 0x00, 0x00, 0x00, 0x73, 0x65, 0x71, 0x75, 0x65, 0x6e, 0x74, 0x69,
  0x61, 0x6c, 0x5f, 0x31, 0x2f, 0x63, 0x6f, 0x6e, 0x76, 0x31, 0x64, 0x5f,
  0x32, 0x2f, 0x43, 0x6f, 0x6e, 0x76, 0x31, 0x44, 0x00, 0x00, 0x00, 0x00,
  0x04, 0x00, 0x00, 0x00, 0x08, 0x00, 0x00, 0x00, 0x01, 0x00, 0x00, 0x00,
  0x05, 0x00, 0x00, 0x00, 0x09, 0x00, 0x00, 0x00, 0xaa, 0xff, 0xff, 0xff,
  0x00, 0x00, 0x00, 0x01, 0x14, 0x00, 0x00, 0x00, 0x14, 0x00, 0x00, 0x00,
  0x05, 0x00, 0x00, 0x00, 0x00, 0x00, 0x00, 0x02, 0x34, 0x00, 0x00, 0x00,
  0x50, 0xfe, 0xff, 0xff, 0x24, 0x00, 0x00, 0x00, 0x73, 0x65, 0x71, 0x75,
  0x65, 0x6e, 0x74, 0x69, 0x61, 0x6c, 0x5f, 0x31, 0x2f, 0x63, 0x6f, 0x6e,
  0x76, 0x31, 0x64, 0x5f, 0x33, 0x2f, 0x43, 0x6f, 0x6e, 0x76, 0x31, 0x44,
  0x2f, 0x53, 0x71, 0x75, 0x65, 0x65, 0x7a, 0x65, 0x00, 0x00, 0x00, 0x00,
  0x01, 0x00, 0x00, 0x00, 0x03, 0x00, 0x00, 0x00, 0x00, 0x00, 0x16, 0x00,
  0x1c, 0x00, 0x18, 0x00, 0x17, 0x00, 0x10, 0x00, 0x0c, 0x00, 0x08, 0x00,
  0x00, 0x00, 0x00, 0x00, 0x00, 0x00, 0x07, 0x00, 0x16, 0x00, 0x00, 0x00,
  0x00, 0x00, 0x00, 0x01, 0x14, 0x00, 0x00, 0x00, 0x14, 0x00, 0x00, 0x00,
  0x04, 0x00, 0x00, 0x00, 0x00, 0x00, 0x00, 0x02, 0x34, 0x00, 0x00, 0x00,
  0xbc, 0xfe, 0xff, 0xff, 0x24, 0x00, 0x00, 0x00, 0x73, 0x65, 0x71, 0x75,
  0x65, 0x6e, 0x74, 0x69, 0x61, 0x6c, 0x5f, 0x31, 0x2f, 0x63, 0x6f, 0x6e,
  0x76, 0x31, 0x64, 0x5f, 0x32, 0x2f, 0x43, 0x6f, 0x6e, 0x76, 0x31, 0x44,
  0x2f, 0x53, 0x71, 0x75, 0x65, 0x65, 0x7a, 0x65, 0x00, 0x00, 0x00, 0x00,
  0x01, 0x00, 0x00, 0x00, 0x03, 0x00, 0x00, 0x00, 0xa6, 0xff, 0xff, 0xff,
  0x00, 0x00, 0x00, 0x01, 0x10, 0x00, 0x00, 0x00, 0x10, 0x00, 0x00, 0x00,
  0x03, 0x00, 0x00, 0x00, 0x3c, 0x00, 0x00, 0x00, 0x0c, 0xff, 0xff, 0xff,
  0x2c, 0x00, 0x00, 0x00, 0x73, 0x65, 0x71, 0x75, 0x65, 0x6e, 0x74, 0x69,
  0x61, 0x6c, 0x5f, 0x31, 0x2f, 0x63, 0x6f, 0x6e, 0x76, 0x31, 0x64, 0x5f,
  0x33, 0x2f, 0x42, 0x69, 0x61, 0x73, 0x41, 0x64, 0x64, 0x2f, 0x52, 0x65,
  0x61, 0x64, 0x56, 0x61, 0x72, 0x69, 0x61, 0x62, 0x6c, 0x65, 0x4f, 0x70,
  0x00, 0x00, 0x00, 0x00, 0x01, 0x00, 0x00, 0x00, 0x08, 0x00, 0x00, 0x00,
  0x00, 0x00, 0x16, 0x00, 0x18, 0x00, 0x14, 0x00, 0x00, 0x00, 0x10, 0x00,
  0x0c, 0x00, 0x08, 0x00, 0x00, 0x00, 0x00, 0x00, 0x00, 0x00, 0x07, 0x00,
  0x16, 0x00, 0x00, 0x00, 0x00, 0x00, 0x00, 0x01, 0x10, 0x00, 0x00, 0x00,
  0x10, 0x00, 0x00, 0x00, 0x02, 0x00, 0x00, 0x00, 0x3c, 0x00, 0x00, 0x00,
  0x7c, 0xff, 0xff, 0xff, 0x2c, 0x00, 0x00, 0x00, 0x73, 0x65, 0x71, 0x75,
  0x65, 0x6e, 0x74, 0x69, 0x61, 0x6c, 0x5f, 0x31, 0x2f, 0x63, 0x6f, 0x6e,
  0x76, 0x31, 0x64, 0x5f, 0x32, 0x2f, 0x42, 0x69, 0x61, 0x73, 0x41, 0x64,
  0x64, 0x2f, 0x52, 0x65, 0x61, 0x64, 0x56, 0x61, 0x72, 0x69, 0x61, 0x62,
  0x6c, 0x65, 0x4f, 0x70, 0x00, 0x00, 0x00, 0x00, 0x01, 0x00, 0x00, 0x00,
  0x08, 0x00, 0x00, 0x00, 0x00, 0x00, 0x16, 0x00, 0x1c, 0x00, 0x18, 0x00,
  0x00, 0x00, 0x14, 0x00, 0x10, 0x00, 0x0c, 0x00, 0x00, 0x00, 0x00, 0x00,
  0x08, 0x00, 0x07, 0x00, 0x16, 0x00, 0x00, 0x00, 0x00, 0x00, 0x00, 0x01,
  0x14, 0x00, 0x00, 0x00, 0x24, 0x00, 0x00, 0x00, 0x24, 0x00, 0x00, 0x00,
  0x01, 0x00, 0x00, 0x00, 0x44, 0x00, 0x00, 0x00, 0x03, 0x00, 0x00, 0x00,
  0xff, 0xff, 0xff, 0xff, 0x2d, 0x00, 0x00, 0x00, 0x09, 0x00, 0x00, 0x00,
  0x04, 0x00, 0x04, 0x00, 0x04, 0x00, 0x00, 0x00, 0x20, 0x00, 0x00, 0x00,
  0x73, 0x65, 0x72, 0x76, 0x69, 0x6e, 0x67, 0x5f, 0x64, 0x65, 0x66, 0x61,
  0x75, 0x6c, 0x74, 0x5f, 0x63, 0x6f, 0x6e, 0x76, 0x31, 0x64, 0x5f, 0x32,
  0x5f, 0x69, 0x6e, 0x70, 0x75, 0x74, 0x3a, 0x30, 0x00, 0x00, 0x00, 0x00,
  0x03, 0x00, 0x00, 0x00, 0x01, 0x00, 0x00, 0x00, 0x2d, 0x00, 0x00, 0x00,
  0x09, 0x00, 0x00, 0x00, 0x08, 0x00, 0x00, 0x00, 0x80, 0x00, 0x00, 0x00,
  0x64, 0x00, 0x00, 0x00, 0x54, 0x00, 0x00, 0x00, 0x44, 0x00, 0x00, 0x00,
  0x34, 0x00, 0x00, 0x00, 0x24, 0x00, 0x00, 0x00, 0x14, 0x00, 0x00, 0x00,
  0x04, 0x00, 0x00, 0x00, 0xac, 0xff, 0xff, 0xff, 0x53, 0x00, 0x00, 0x00,
  0x00, 0x00, 0x00, 0x53, 0xb8, 0xff, 0xff, 0xff, 0x2d, 0x00, 0x00, 0x00,
  0x00, 0x00, 0x00, 0x2d, 0xc4, 0xff, 0xff, 0xff, 0x4d, 0x00, 0x00, 0x00,
  0x00, 0x00, 0x00, 0x4d, 0xd0, 0xff, 0xff, 0xff, 0x09, 0x00, 0x00, 0x00,
  0x00, 0x00, 0x00, 0x09, 0xdc, 0xff, 0xff, 0xff, 0x11, 0x00, 0x00, 0x00,
  0x00, 0x00, 0x00, 0x11, 0xe8, 0xff, 0xff, 0xff, 0x16, 0x00, 0x00, 0x00,
  0x00, 0x00, 0x00, 0x16, 0xf4, 0xff, 0xff, 0xff, 0x03, 0x00, 0x00, 0x00,
  0x00, 0x00, 0x00, 0x03, 0x0c, 0x00, 0x0c, 0x00, 0x0b, 0x00, 0x00, 0x00,
  0x00, 0x00, 0x04, 0x00, 0x0c, 0x00, 0x00, 0x00, 0x46, 0x00, 0x00, 0x00,
  0x00, 0x00, 0x00, 0x46
};

// unsigned int _tf_models_tinyML_models_model_v1_non_quantized_tflite_len = 11692;
const int g_model_len_ex = sizeof(g_model);


// Values required to standardize!
// accX
const float ACCX_MEAN = 9.235880f;    
const float ACCX_STD = 1.516386f;    

// accY
const float ACCY_MEAN = -0.682526f;    
const float ACCY_STD = 3.083149f;      

// accZ
const float ACCZ_MEAN = 0.4874396f;    
const float ACCZ_STD = 0.234757f;      

// gyroX
const float GYROX_MEAN = 0.344743f;  
const float GYROX_STD = 28.02007f;    

// gyroY
const float GYROY_MEAN = 0.666154f; 
const float GYROY_STD = 8.086139f;  

// gyroZ
const float GYROZ_MEAN = 0.011609f; 
const float GYROZ_STD = 26.38441f;      

// magX
const float MAGX_MEAN = -33.35714f;  
const float MAGX_STD = 5.843046f;    

// magY
const float MAGY_MEAN = 19.60439f;  
const float MAGY_STD = 19.29037f;    

// magZ
const float MAGZ_MEAN = -2.507685f;  
const float MAGZ_STD = 31.47144f;