#include "model.h"

alignas(16) const char g_model[] = {
  0x1c, 0x00, 0x00, 0x00, 0x54, 0x46, 0x4c, 0x33, 0x14, 0x00, 0x20, 0x00,
  0x1c, 0x00, 0x18, 0x00, 0x14, 0x00, 0x10, 0x00, 0x0c, 0x00, 0x00, 0x00,
  0x08, 0x00, 0x04, 0x00, 0x14, 0x00, 0x00, 0x00, 0x1c, 0x00, 0x00, 0x00,
  0x8c, 0x00, 0x00, 0x00, 0xe4, 0x00, 0x00, 0x00, 0xf8, 0x17, 0x00, 0x00,
  0x08, 0x18, 0x00, 0x00, 0xc0, 0x21, 0x00, 0x00, 0x03, 0x00, 0x00, 0x00,
  0x01, 0x00, 0x00, 0x00, 0x10, 0x00, 0x00, 0x00, 0x00, 0x00, 0x0a, 0x00,
  0x10, 0x00, 0x0c, 0x00, 0x08, 0x00, 0x04, 0x00, 0x0a, 0x00, 0x00, 0x00,
  0x0c, 0x00, 0x00, 0x00, 0x1c, 0x00, 0x00, 0x00, 0x3c, 0x00, 0x00, 0x00,
  0x0f, 0x00, 0x00, 0x00, 0x73, 0x65, 0x72, 0x76, 0x69, 0x6e, 0x67, 0x5f,
  0x64, 0x65, 0x66, 0x61, 0x75, 0x6c, 0x74, 0x00, 0x01, 0x00, 0x00, 0x00,
  0x04, 0x00, 0x00, 0x00, 0x9c, 0xff, 0xff, 0xff, 0x12, 0x00, 0x00, 0x00,
  0x04, 0x00, 0x00, 0x00, 0x08, 0x00, 0x00, 0x00, 0x6f, 0x75, 0x74, 0x70,
  0x75, 0x74, 0x5f, 0x30, 0x00, 0x00, 0x00, 0x00, 0x01, 0x00, 0x00, 0x00,
  0x04, 0x00, 0x00, 0x00, 0xb6, 0xe8, 0xff, 0xff, 0x04, 0x00, 0x00, 0x00,
  0x01, 0x00, 0x00, 0x00, 0x78, 0x00, 0x00, 0x00, 0x02, 0x00, 0x00, 0x00,
  0x34, 0x00, 0x00, 0x00, 0x04, 0x00, 0x00, 0x00, 0xdc, 0xff, 0xff, 0xff,
  0x15, 0x00, 0x00, 0x00, 0x04, 0x00, 0x00, 0x00, 0x13, 0x00, 0x00, 0x00,
  0x43, 0x4f, 0x4e, 0x56, 0x45, 0x52, 0x53, 0x49, 0x4f, 0x4e, 0x5f, 0x4d,
  0x45, 0x54, 0x41, 0x44, 0x41, 0x54, 0x41, 0x00, 0x08, 0x00, 0x0c, 0x00,
  0x08, 0x00, 0x04, 0x00, 0x08, 0x00, 0x00, 0x00, 0x14, 0x00, 0x00, 0x00,
  0x04, 0x00, 0x00, 0x00, 0x13, 0x00, 0x00, 0x00, 0x6d, 0x69, 0x6e, 0x5f,
  0x72, 0x75, 0x6e, 0x74, 0x69, 0x6d, 0x65, 0x5f, 0x76, 0x65, 0x72, 0x73,
  0x69, 0x6f, 0x6e, 0x00, 0x16, 0x00, 0x00, 0x00, 0x10, 0x17, 0x00, 0x00,
  0x08, 0x17, 0x00, 0x00, 0xd8, 0x16, 0x00, 0x00, 0xa0, 0x16, 0x00, 0x00,
  0x80, 0x16, 0x00, 0x00, 0x60, 0x16, 0x00, 0x00, 0xf0, 0x12, 0x00, 0x00,
  0xe0, 0x0f, 0x00, 0x00, 0xac, 0x0f, 0x00, 0x00, 0x90, 0x0f, 0x00, 0x00,
  0x78, 0x0f, 0x00, 0x00, 0xc8, 0x00, 0x00, 0x00, 0xc0, 0x00, 0x00, 0x00,
  0xb8, 0x00, 0x00, 0x00, 0xb0, 0x00, 0x00, 0x00, 0xa8, 0x00, 0x00, 0x00,
  0xa0, 0x00, 0x00, 0x00, 0x98, 0x00, 0x00, 0x00, 0x90, 0x00, 0x00, 0x00,
  0x88, 0x00, 0x00, 0x00, 0x68, 0x00, 0x00, 0x00, 0x04, 0x00, 0x00, 0x00,
  0x7e, 0xe9, 0xff, 0xff, 0x04, 0x00, 0x00, 0x00, 0x54, 0x00, 0x00, 0x00,
  0x0c, 0x00, 0x00, 0x00, 0x08, 0x00, 0x0e, 0x00, 0x08, 0x00, 0x04, 0x00,
  0x08, 0x00, 0x00, 0x00, 0x10, 0x00, 0x00, 0x00, 0x24, 0x00, 0x00, 0x00,
  0x00, 0x00, 0x06, 0x00, 0x08, 0x00, 0x04, 0x00, 0x06, 0x00, 0x00, 0x00,
  0x04, 0x00, 0x00, 0x00, 0x00, 0x00, 0x00, 0x00, 0x00, 0x00, 0x0a, 0x00,
  0x10, 0x00, 0x0c, 0x00, 0x08, 0x00, 0x04, 0x00, 0x0a, 0x00, 0x00, 0x00,
  0x01, 0x00, 0x00, 0x00, 0x02, 0x00, 0x00, 0x00, 0x04, 0x00, 0x00, 0x00,
  0x06, 0x00, 0x00, 0x00, 0x32, 0x2e, 0x31, 0x35, 0x2e, 0x30, 0x00, 0x00,
  0xde, 0xe9, 0xff, 0xff, 0x04, 0x00, 0x00, 0x00, 0x10, 0x00, 0x00, 0x00,
  0x31, 0x2e, 0x35, 0x2e, 0x30, 0x00, 0x00, 0x00, 0x00, 0x00, 0x00, 0x00,
  0x00, 0x00, 0x00, 0x00, 0x20, 0xe0, 0xff, 0xff, 0x24, 0xe0, 0xff, 0xff,
  0x28, 0xe0, 0xff, 0xff, 0x2c, 0xe0, 0xff, 0xff, 0x30, 0xe0, 0xff, 0xff,
  0x34, 0xe0, 0xff, 0xff, 0x38, 0xe0, 0xff, 0xff, 0x3c, 0xe0, 0xff, 0xff,
  0x1a, 0xea, 0xff, 0xff, 0x04, 0x00, 0x00, 0x00, 0xa0, 0x0e, 0x00, 0x00,
  0x69, 0x95, 0x28, 0x3e, 0x7d, 0x76, 0x24, 0x3d, 0x80, 0x45, 0xbc, 0x3d,
  0xe2, 0x71, 0x3c, 0xbc, 0xbd, 0x05, 0xe9, 0xbc, 0x8a, 0xe4, 0xf5, 0x3d,
  0xb6, 0x2e, 0x9d, 0xbb, 0xba, 0xe0, 0x49, 0xbd, 0x0b, 0xd7, 0x95, 0x3d,
  0x43, 0xa5, 0xa5, 0xbc, 0x3c, 0x02, 0xb8, 0x3d, 0x8a, 0xb5, 0xdd, 0xbd,
  0x6b, 0xef, 0x3f, 0xbd, 0xb5, 0x2a, 0xc3, 0x3c, 0xec, 0x26, 0x15, 0x3d,
  0x4f, 0x50, 0x0b, 0xbc, 0x4e, 0xa9, 0x0f, 0xbd, 0x35, 0x90, 0x5f, 0xbd,
  0xcc, 0x02, 0xc0, 0x3d, 0x94, 0xe9, 0x7a, 0xbc, 0xe9, 0x76, 0x0f, 0xbd,
  0x78, 0x6f, 0x23, 0xbc, 0x74, 0xe1, 0x9f, 0x3d, 0xb3, 0xad, 0xce, 0xbc,
  0x10, 0x86, 0xb6, 0x3c, 0x8d, 0x9b, 0xee, 0xbc, 0xe7, 0x4a, 0x5a, 0xbd,
  0x00, 0x4f, 0xe4, 0x3b, 0x15, 0xb5, 0x8b, 0x3d, 0x30, 0x3a, 0x1f, 0xbc,
  0x8a, 0x13, 0xcb, 0x3d, 0x84, 0xf5, 0xd2, 0xbc, 0x02, 0x55, 0x28, 0x3d,
  0xeb, 0x52, 0xaa, 0xbc, 0xec, 0x28, 0xfb, 0xbd, 0xea, 0xdf, 0x51, 0xbd,
  0xee, 0xef, 0x09, 0x3e, 0xc6, 0x38, 0x8a, 0x3c, 0x74, 0xb3, 0x89, 0xbc,
  0x48, 0x4a, 0x52, 0x3c, 0x20, 0x3f, 0x10, 0xbd, 0xad, 0x94, 0x1a, 0xbc,
  0x1c, 0xfe, 0x4b, 0x3d, 0x7d, 0x4d, 0x02, 0xbe, 0x2f, 0x52, 0x10, 0x3e,
  0xa6, 0xee, 0x5a, 0xbd, 0xcc, 0x48, 0xbd, 0xbd, 0x02, 0x40, 0xc0, 0x3d,
  0xc3, 0xd5, 0x4f, 0x3d, 0x5b, 0x29, 0x59, 0xbc, 0x5a, 0x52, 0x34, 0x3e,
  0xd5, 0x89, 0xe0, 0xbd, 0x1f, 0xfa, 0x23, 0x3e, 0x64, 0xa6, 0xbf, 0xbc,
  0x2e, 0x31, 0x08, 0xbc, 0x36, 0x06, 0x0a, 0x3e, 0xa0, 0x92, 0xb6, 0x3d,
  0x52, 0x2a, 0xb0, 0xbd, 0x0f, 0x79, 0x19, 0x3e, 0x77, 0x2e, 0xa6, 0xbd,
  0xcd, 0x51, 0x9a, 0x3d, 0x9c, 0xc1, 0x78, 0xbd, 0x6b, 0xc6, 0x92, 0x3d,
  0x8a, 0x4e, 0xc9, 0x3a, 0x5f, 0xfc, 0x90, 0x3d, 0x09, 0xf9, 0xba, 0xbd,
  0x80, 0x6c, 0x47, 0x3d, 0x6d, 0x90, 0x19, 0xbd, 0x71, 0xa1, 0x1d, 0x3d,
  0xe2, 0xfe, 0xae, 0xbd, 0xb4, 0x89, 0xba, 0x3d, 0xcd, 0x1a, 0x99, 0xbd,
  0x58, 0x1a, 0xc7, 0x3d, 0x41, 0xba, 0x2a, 0xbd, 0xf9, 0x99, 0x05, 0xbe,
  0x64, 0xec, 0x0c, 0x3d, 0x7d, 0x17, 0x71, 0x3d, 0x3d, 0x7d, 0x64, 0xbb,
  0xc3, 0x10, 0x4d, 0xbd, 0x99, 0x5d, 0xab, 0xbc, 0x3e, 0x53, 0xc1, 0xba,
  0xa8, 0x57, 0xe7, 0x3c, 0xb0, 0xc6, 0xb7, 0xbd, 0x7e, 0x0e, 0x43, 0x3c,
  0x38, 0x3e, 0xda, 0xbc, 0x97, 0x03, 0x2e, 0x3d, 0xfa, 0x91, 0x0e, 0xbd,
  0xc8, 0x91, 0xbf, 0xbd, 0x98, 0xde, 0x09, 0xbe, 0x5e, 0x15, 0x0b, 0x3e,
  0x86, 0x8c, 0x35, 0xbe, 0xc1, 0xe3, 0x4a, 0xbd, 0x0f, 0x52, 0x19, 0x3c,
  0xba, 0xa0, 0xf4, 0x3d, 0x18, 0xcf, 0x26, 0x3d, 0x20, 0xb2, 0x0c, 0xbe,
  0xf6, 0xd3, 0x11, 0xbe, 0x51, 0xa2, 0x7d, 0xbd, 0x8f, 0x11, 0x27, 0xbe,
  0xc6, 0x1b, 0xcf, 0x3d, 0x34, 0xed, 0xc1, 0xbd, 0x47, 0x8c, 0x49, 0x3e,
  0x0d, 0xb0, 0xb7, 0x3d, 0xa8, 0x7a, 0xf0, 0xbd, 0x8d, 0xf8, 0x12, 0xbc,
  0x72, 0x5b, 0xfd, 0x3c, 0x69, 0x32, 0xc8, 0x3d, 0xa7, 0x26, 0xd5, 0x3b,
  0x0c, 0xfd, 0x0f, 0x3d, 0xea, 0x66, 0xb7, 0xbc, 0xe7, 0x66, 0x0f, 0xbd,
  0x03, 0x89, 0x17, 0xbd, 0x2b, 0xb5, 0xe8, 0x3c, 0x8a, 0x22, 0x12, 0xbd,
  0xdb, 0xe7, 0xa8, 0x3d, 0xd2, 0x02, 0xaf, 0x3c, 0x20, 0xc9, 0xa2, 0xbd,
  0x8a, 0x18, 0x05, 0x3d, 0x42, 0x4d, 0x81, 0x3c, 0x4b, 0x63, 0x9c, 0xbb,
  0x61, 0x0f, 0xb1, 0x3d, 0x8a, 0xa6, 0x55, 0xbd, 0xb6, 0xba, 0xe9, 0x3d,
  0x7b, 0xd0, 0xfe, 0x3b, 0xab, 0x83, 0xe5, 0xbd, 0xd1, 0x1a, 0x2c, 0xbd,
  0xca, 0xa5, 0x07, 0xbb, 0x7f, 0xac, 0xf9, 0xbb, 0x5f, 0x9d, 0x1c, 0x3e,
  0xe9, 0xed, 0x7e, 0xbc, 0x1c, 0x40, 0xaa, 0x3d, 0xd0, 0x61, 0xac, 0x3a,
  0x82, 0xb1, 0xb8, 0xbd, 0x17, 0x88, 0xe0, 0xbc, 0x9b, 0xe8, 0x8e, 0x3c,
  0xb3, 0x83, 0xe3, 0xbc, 0x8f, 0xed, 0x6b, 0x3d, 0x0e, 0xa1, 0xb5, 0x3c,
  0xc2, 0x26, 0xe5, 0x3c, 0x05, 0xf7, 0x95, 0xbc, 0xeb, 0xc1, 0x2d, 0x3d,
  0x61, 0xe9, 0xe4, 0x3c, 0x51, 0xf5, 0x2c, 0x3d, 0x61, 0x4e, 0x6f, 0xbd,
  0x69, 0x59, 0x9f, 0xbc, 0x78, 0xf4, 0x1e, 0x3a, 0xe6, 0xf1, 0xfe, 0xbc,
  0xcd, 0x55, 0x6f, 0xbd, 0x20, 0xca, 0xfa, 0x3d, 0x81, 0x56, 0x0e, 0x3c,
  0xe5, 0xfd, 0x82, 0xbc, 0xae, 0x52, 0x2a, 0xbd, 0x6f, 0xdb, 0x90, 0xbc,
  0xda, 0x00, 0xb0, 0xbc, 0xe2, 0x3b, 0xa3, 0xbc, 0xfd, 0x03, 0x94, 0xbd,
  0x59, 0x7d, 0x31, 0x3e, 0x54, 0x4b, 0x60, 0x3d, 0xf4, 0xf4, 0x11, 0xbd,
  0xd7, 0x74, 0xd6, 0x3c, 0xf7, 0xc8, 0x31, 0xbc, 0x30, 0xe3, 0x89, 0xbd,
  0xb0, 0x56, 0x38, 0x3d, 0x8c, 0x6b, 0x98, 0xbd, 0x3f, 0xbf, 0xdd, 0x3d,
  0x1a, 0x86, 0x1b, 0x3d, 0x49, 0x14, 0xa7, 0x3d, 0xb3, 0x13, 0x1d, 0xbc,
  0xb3, 0xb6, 0x9b, 0x3c, 0x21, 0xf1, 0x83, 0xbd, 0xba, 0x15, 0xcb, 0x3d,
  0xde, 0x9b, 0xaf, 0xbd, 0x2d, 0xab, 0x92, 0x3d, 0x79, 0x40, 0xf0, 0x3c,
  0x0e, 0x6b, 0xca, 0x3d, 0x79, 0x41, 0x3b, 0xbd, 0x09, 0x9f, 0xc4, 0x3b,
  0x5b, 0xcd, 0x98, 0xbd, 0x4b, 0x8f, 0x16, 0x3d, 0x1f, 0xc3, 0x8d, 0xbc,
  0xef, 0xaa, 0xde, 0x3b, 0x22, 0xf5, 0xa1, 0x3d, 0x1a, 0x03, 0x8a, 0x3d,
  0xad, 0x36, 0x46, 0xbd, 0x15, 0x4a, 0x4b, 0xbd, 0x91, 0x33, 0xa9, 0xbd,
  0xd6, 0x1f, 0x1d, 0xbc, 0x05, 0x29, 0x04, 0x3c, 0xde, 0xab, 0xa4, 0xbd,
  0x80, 0x90, 0x87, 0x3d, 0x11, 0x32, 0x14, 0x3d, 0x6b, 0x43, 0xb7, 0xbd,
  0x95, 0xd4, 0x84, 0xbd, 0x3a, 0x87, 0x7b, 0xbc, 0x1b, 0x4d, 0xf1, 0xbc,
  0x1c, 0x4e, 0x88, 0x3b, 0xec, 0xe5, 0xa7, 0xbd, 0xdd, 0x25, 0x5b, 0x3d,
  0xc3, 0x1e, 0x9d, 0xbc, 0x3e, 0xec, 0xbc, 0xbd, 0x3f, 0x87, 0xee, 0xbd,
  0xe4, 0xbd, 0x4c, 0x3e, 0x32, 0xda, 0x4a, 0x3e, 0x3c, 0x3e, 0xf3, 0x3d,
  0x7b, 0xb8, 0xa5, 0x3d, 0x46, 0x0c, 0x50, 0x3d, 0x04, 0x99, 0x59, 0x3c,
  0x67, 0xb4, 0xcb, 0xbd, 0x58, 0x61, 0xff, 0xbc, 0x99, 0xfd, 0x00, 0xbe,
  0xfe, 0xda, 0x47, 0xbc, 0xcb, 0xd4, 0x5f, 0x3d, 0x6e, 0xa5, 0xdd, 0xbd,
  0xf4, 0x81, 0x76, 0xbd, 0xe7, 0x5b, 0xc4, 0x3d, 0x8f, 0xc9, 0xac, 0xbd,
  0x26, 0xca, 0xb3, 0xbc, 0x61, 0x8a, 0x04, 0xbe, 0x07, 0xa2, 0x96, 0x3d,
  0x21, 0xaa, 0x67, 0xbc, 0x04, 0x8a, 0xe5, 0xbd, 0x65, 0xd6, 0x45, 0x3e,
  0x9b, 0x11, 0x0d, 0xbe, 0x2f, 0xeb, 0x46, 0x3d, 0x48, 0xa3, 0xda, 0xbc,
  0x94, 0xf3, 0x9b, 0xbc, 0x09, 0x50, 0x46, 0x3d, 0xd1, 0x01, 0x45, 0x3d,
  0xde, 0x74, 0xcc, 0xbd, 0x19, 0xba, 0xf6, 0x3d, 0x91, 0x89, 0x09, 0xbe,
  0xaa, 0x76, 0x43, 0x3d, 0x03, 0xbe, 0xf3, 0x3d, 0x97, 0x5a, 0xc6, 0x3d,
  0xe3, 0x67, 0x81, 0xbb, 0x01, 0x8d, 0x8a, 0x3d, 0x85, 0x1d, 0x15, 0xbe,
  0x29, 0x6a, 0xa5, 0xbd, 0x21, 0x09, 0xbc, 0xbd, 0xd7, 0x04, 0x4f, 0x3b,
  0x27, 0x39, 0xcb, 0x3b, 0x17, 0x56, 0x6a, 0x3d, 0x88, 0x0a, 0xf3, 0xbd,
  0x3c, 0x25, 0x88, 0xbc, 0xf6, 0x5b, 0x82, 0xbb, 0x07, 0xe3, 0x9f, 0x3a,
  0x28, 0xe0, 0x98, 0x3a, 0xcd, 0x15, 0x15, 0xbc, 0x91, 0x13, 0xa1, 0xbd,
  0xd8, 0x8c, 0xaf, 0xbc, 0xf0, 0x00, 0x14, 0xbe, 0x9d, 0x3b, 0x9f, 0xbd,
  0x13, 0xe3, 0x0b, 0x3e, 0x72, 0xcf, 0xc8, 0x3d, 0x41, 0x23, 0x1f, 0x3c,
  0x76, 0xe3, 0x86, 0xbd, 0xba, 0x7e, 0x2f, 0x3e, 0xd6, 0x1d, 0x45, 0xbd,
  0xd8, 0x64, 0x45, 0xbd, 0x54, 0x4a, 0xc9, 0xbd, 0x14, 0xad, 0x95, 0x3d,
  0xa5, 0xe8, 0x16, 0x3e, 0x5e, 0xc6, 0x7c, 0x3d, 0xcc, 0x22, 0x9c, 0xbd,
  0x5c, 0x01, 0xd3, 0x3d, 0x2c, 0xd8, 0x94, 0xbd, 0x36, 0x55, 0xe4, 0x3d,
  0x49, 0x5f, 0x77, 0x3c, 0xb0, 0x66, 0x28, 0x3c, 0x41, 0x6c, 0x7e, 0x3d,
  0x25, 0xe1, 0x90, 0x3d, 0x3c, 0x36, 0xac, 0xbc, 0x42, 0xe4, 0xf5, 0xbd,
  0x9e, 0x12, 0x8d, 0x3c, 0x12, 0x23, 0x00, 0x3e, 0x4d, 0xdc, 0x1b, 0x3c,
  0x79, 0xbf, 0x5a, 0x3d, 0xd4, 0xc7, 0xe2, 0xbd, 0x69, 0x6a, 0x5f, 0x3d,
  0xbf, 0xb3, 0x49, 0x3d, 0xc1, 0x85, 0x11, 0xbb, 0x91, 0x5e, 0xa4, 0x3c,
  0x8e, 0xc8, 0x83, 0xbc, 0xc7, 0x7b, 0x64, 0xbd, 0x15, 0x56, 0xb4, 0x3d,
  0xa4, 0x74, 0x46, 0xbe, 0xe8, 0x72, 0x4f, 0x3d, 0xe6, 0xa8, 0x9d, 0xba,
  0x2d, 0x05, 0x2f, 0x3d, 0xfe, 0xca, 0x0b, 0xbe, 0xc1, 0x44, 0xe6, 0x3c,
  0x16, 0x59, 0x8f, 0x3d, 0xec, 0x71, 0x2b, 0x3e, 0x0c, 0x21, 0xad, 0x3c,
  0xe6, 0xfd, 0x2d, 0x3d, 0x85, 0xcb, 0x93, 0xbd, 0x03, 0x55, 0x1a, 0x3e,
  0xb4, 0x46, 0x3a, 0xbe, 0xb2, 0x9d, 0x38, 0x3c, 0xa5, 0x9d, 0xe5, 0x3d,
  0x03, 0x73, 0x00, 0x3e, 0x80, 0xcc, 0x2c, 0x3e, 0x94, 0xfa, 0x40, 0xbb,
  0x27, 0xc7, 0x29, 0xbe, 0xa3, 0xd5, 0x93, 0xbd, 0x53, 0x68, 0xa4, 0x3d,
  0x0f, 0x51, 0xd0, 0x3c, 0xcd, 0xf2, 0x90, 0xbd, 0x29, 0xeb, 0x23, 0x3d,
  0x02, 0xb9, 0x39, 0xbc, 0xac, 0x89, 0xdf, 0x3d, 0x4d, 0x06, 0xc8, 0xbd,
  0xab, 0x3e, 0xdf, 0x3c, 0x18, 0x76, 0x92, 0xbc, 0x41, 0x4d, 0x28, 0xbc,
  0xa8, 0x66, 0x7d, 0x3b, 0xed, 0x91, 0x9c, 0x3c, 0xe0, 0xf8, 0xda, 0xbd,
  0x98, 0x02, 0x5f, 0x3c, 0xb5, 0xaa, 0xe9, 0x3c, 0xaa, 0x65, 0x0f, 0x3d,
  0xac, 0x69, 0x92, 0xbc, 0xb6, 0xc4, 0xa0, 0x3d, 0xab, 0x06, 0x36, 0x3d,
  0x57, 0x63, 0x5f, 0xbd, 0xd9, 0x26, 0xc8, 0xbd, 0xa5, 0x14, 0xfa, 0x3d,
  0xc6, 0x5f, 0xc1, 0xbd, 0x6d, 0x59, 0x5f, 0x3b, 0x8b, 0x2d, 0x5f, 0xbc,
  0xc2, 0x19, 0x3e, 0x3d, 0xe6, 0x82, 0x22, 0xbc, 0x69, 0xda, 0x2c, 0x3d,
  0x1e, 0xde, 0x06, 0x3d, 0xc7, 0x08, 0x8c, 0x3c, 0x27, 0x10, 0xa8, 0xbc,
  0x2b, 0xea, 0x01, 0x3c, 0x85, 0x72, 0x01, 0xbd, 0x35, 0x6c, 0xa6, 0x3d,
  0xdb, 0x85, 0x2a, 0xbd, 0xf5, 0xf8, 0x8a, 0xbc, 0xe2, 0xd4, 0x16, 0xbd,
  0x7f, 0xa4, 0x6e, 0x3d, 0xf5, 0xff, 0xa2, 0xbc, 0x21, 0x81, 0x2e, 0x3e,
  0x69, 0xe8, 0x99, 0x3c, 0x5c, 0x25, 0x18, 0x3e, 0x3a, 0x45, 0x1d, 0x3d,
  0xec, 0xa4, 0xab, 0x3d, 0x56, 0xc7, 0x67, 0xbd, 0x72, 0x8b, 0x38, 0x3d,
  0xe6, 0x25, 0xd9, 0xbb, 0xb5, 0xe3, 0x81, 0x3d, 0xfe, 0x7f, 0x7d, 0x3d,
  0x76, 0xd3, 0x8f, 0x3c, 0x2f, 0x65, 0xd1, 0xbb, 0xfe, 0x65, 0x10, 0x3d,
  0x46, 0x63, 0x27, 0x3d, 0xcd, 0xd1, 0x8c, 0xbd, 0xab, 0xf3, 0x2e, 0xbd,
  0x78, 0x20, 0xa1, 0xbe, 0x47, 0x42, 0x90, 0xbc, 0x42, 0x27, 0x05, 0xbe,
  0xa5, 0x50, 0xe2, 0xbd, 0xe4, 0x9e, 0x4b, 0x3d, 0x66, 0x06, 0x6d, 0x3d,
  0x3e, 0x55, 0xdc, 0x3d, 0xca, 0xe7, 0x8f, 0xbd, 0x64, 0xf1, 0x4b, 0xbd,
  0xe2, 0xf2, 0x7d, 0xbd, 0x2e, 0x2f, 0xd1, 0xbd, 0x95, 0xf7, 0x9e, 0xbd,
  0x66, 0xd4, 0xef, 0xbc, 0x47, 0xdb, 0xda, 0x3d, 0x22, 0x5e, 0x25, 0x3e,
  0xb5, 0x99, 0xaf, 0xbd, 0x53, 0xbc, 0xdc, 0x3d, 0x34, 0x46, 0x3a, 0xbd,
  0x87, 0xe6, 0x82, 0x3d, 0x20, 0xb7, 0xc7, 0x3d, 0x9a, 0xf0, 0x8e, 0xbd,
  0x3d, 0x7e, 0x1b, 0x3e, 0xd3, 0xef, 0x57, 0xbd, 0x6a, 0x2a, 0xb4, 0xbd,
  0x83, 0xf1, 0x8b, 0xbd, 0x44, 0x4e, 0xcb, 0x3d, 0xd1, 0x12, 0xd6, 0xbc,
  0x53, 0x34, 0x80, 0x3d, 0xbe, 0x24, 0xd9, 0xbc, 0xa7, 0x97, 0xb1, 0x3c,
  0x83, 0x0b, 0x5d, 0xbd, 0xa3, 0xe2, 0x1e, 0xbc, 0x76, 0x6e, 0x33, 0xbe,
  0xdb, 0xf5, 0x42, 0x3e, 0x7c, 0x6c, 0xca, 0xbc, 0x75, 0x31, 0x87, 0xbd,
  0xcb, 0x26, 0x43, 0xbe, 0x1f, 0xd3, 0x5f, 0xbd, 0x67, 0x8a, 0x91, 0x3d,
  0x95, 0xff, 0xff, 0x3d, 0x09, 0x23, 0x4d, 0xbe, 0x26, 0xcb, 0x02, 0x3e,
  0xf6, 0x6b, 0x2a, 0xbd, 0xfa, 0x7a, 0x1b, 0xbe, 0xdf, 0x24, 0x3e, 0xbe,
  0x8c, 0x3c, 0x64, 0xbd, 0x0f, 0x03, 0x8c, 0x3e, 0xd7, 0x55, 0xca, 0x3d,
  0x46, 0x38, 0xb8, 0x3e, 0xdc, 0x0e, 0xb6, 0xbe, 0x95, 0x67, 0x0d, 0x3e,
  0x15, 0x7b, 0x87, 0x3e, 0xe9, 0x4f, 0x5c, 0x3e, 0xac, 0x62, 0x98, 0x3e,
  0xbc, 0xb2, 0x10, 0xbf, 0xa5, 0x2a, 0xd2, 0xbd, 0xf8, 0x58, 0x7d, 0xbe,
  0x42, 0x50, 0xc7, 0xbd, 0xf4, 0xc7, 0x04, 0x3e, 0xe5, 0x0d, 0x92, 0x3d,
  0xe8, 0xf6, 0x9a, 0xbd, 0x1a, 0x8f, 0x8f, 0x3d, 0x0e, 0x23, 0xa7, 0x3d,
  0x77, 0xd5, 0x48, 0x3d, 0x44, 0xf9, 0xb7, 0x3c, 0x4c, 0x18, 0xb7, 0xbd,
  0xca, 0x2f, 0x54, 0x3d, 0x1e, 0x25, 0x1a, 0xbc, 0xdf, 0x2e, 0x04, 0xbe,
  0xd4, 0x3f, 0xcb, 0xbc, 0x96, 0xf3, 0x47, 0xbb, 0xb3, 0x8f, 0x1b, 0x3d,
  0x06, 0x95, 0xc4, 0x3d, 0x31, 0xea, 0x0c, 0xbd, 0x52, 0xbc, 0x20, 0xbd,
  0x82, 0xa2, 0xd4, 0x3c, 0xa9, 0x07, 0xaa, 0xbd, 0xd2, 0xc4, 0x52, 0x3c,
  0x2f, 0x5a, 0x10, 0xbd, 0x57, 0x44, 0x81, 0x3d, 0x7a, 0x66, 0xc3, 0x3b,
  0xd6, 0x81, 0x1e, 0x3c, 0xe6, 0x06, 0xdd, 0xbd, 0xac, 0xd8, 0x8d, 0x3d,
  0x3f, 0xe3, 0x18, 0xbc, 0x46, 0xf4, 0x61, 0x3c, 0x39, 0xef, 0x47, 0x3c,
  0x2b, 0xcf, 0xd9, 0xbc, 0x89, 0x3f, 0x04, 0xbe, 0x94, 0x23, 0xd9, 0x3c,
  0xa8, 0x0f, 0x70, 0xbe, 0x3d, 0x8a, 0x59, 0x3c, 0xbc, 0xd3, 0x66, 0x3d,
  0xe8, 0xe1, 0x9f, 0x3c, 0x09, 0x8e, 0x98, 0x3d, 0x21, 0xf7, 0x40, 0xbd,
  0x13, 0x4c, 0x8e, 0xbd, 0xdf, 0xfd, 0x71, 0x3d, 0xd6, 0x72, 0x5f, 0xbd,
  0x69, 0xb1, 0x40, 0x3d, 0xcd, 0x50, 0x43, 0xbd, 0x83, 0x0e, 0xde, 0xbb,
  0x76, 0xe4, 0x59, 0xbd, 0x7d, 0xf3, 0xc1, 0x3c, 0xdf, 0x1f, 0x74, 0x3b,
  0xec, 0x77, 0x7b, 0xbc, 0x6b, 0x03, 0xb1, 0x3c, 0xd7, 0x31, 0x97, 0x3d,
  0x4d, 0x76, 0xfe, 0xbd, 0xf4, 0x1c, 0x1a, 0xbd, 0x34, 0x9f, 0x97, 0xbd,
  0x26, 0xc2, 0x8e, 0x3d, 0x2d, 0x42, 0x58, 0x3d, 0x8d, 0x69, 0x4d, 0xbd,
  0x95, 0x21, 0xb3, 0xbd, 0x40, 0x9f, 0xae, 0xbc, 0x3f, 0x07, 0x9f, 0x3c,
  0x87, 0x9a, 0xb9, 0xbd, 0xa6, 0x3d, 0x3b, 0x3d, 0x12, 0x8c, 0x77, 0x3d,
  0x70, 0xe0, 0xf3, 0x3d, 0xf8, 0xdb, 0xb3, 0xbb, 0x7d, 0x88, 0xd4, 0xbc,
  0x3a, 0x56, 0x12, 0xbd, 0x9a, 0x67, 0xf6, 0x3d, 0xff, 0x28, 0xbc, 0xbd,
  0xd5, 0xef, 0xa3, 0x3c, 0xff, 0xcc, 0xe1, 0x3c, 0x52, 0xab, 0x40, 0x3d,
  0xcb, 0x02, 0xe8, 0x3c, 0xc2, 0xbb, 0x8b, 0x3b, 0xa5, 0x00, 0x4c, 0x3b,
  0xb6, 0xbc, 0x15, 0x3d, 0x74, 0xcd, 0x9b, 0xbb, 0xf8, 0x18, 0x2e, 0x3d,
  0x87, 0xb2, 0xab, 0xbc, 0xcb, 0x22, 0xd1, 0xbc, 0x62, 0x32, 0x22, 0x3c,
  0x45, 0xd7, 0xba, 0xbc, 0x62, 0x02, 0x6f, 0xbc, 0xa3, 0x38, 0xcf, 0x3c,
  0x6a, 0x4e, 0x57, 0xbd, 0x2d, 0x37, 0x83, 0x3c, 0x1c, 0x0b, 0xed, 0x3c,
  0x74, 0xdb, 0x45, 0xbd, 0xd8, 0x8e, 0x5a, 0xbd, 0xc6, 0xfa, 0x88, 0x3c,
  0x51, 0x6b, 0x4e, 0x3d, 0x4a, 0x12, 0xa6, 0x3c, 0x3b, 0xf5, 0x40, 0xbe,
  0xff, 0x14, 0x42, 0xbc, 0x10, 0x6a, 0xe4, 0x3d, 0x89, 0x42, 0x25, 0x3d,
  0xf0, 0xa6, 0x6a, 0x3d, 0x76, 0x1f, 0x40, 0x3e, 0x71, 0x68, 0x13, 0x3e,
  0x6e, 0xe4, 0x7e, 0xbd, 0xb1, 0xef, 0xcb, 0xbe, 0x73, 0xca, 0x14, 0xbe,
  0x8d, 0xab, 0x5c, 0x3d, 0xb3, 0xfe, 0x18, 0x3e, 0xd1, 0x92, 0xec, 0x3b,
  0xc9, 0xf7, 0x02, 0x3c, 0xc5, 0x5f, 0x1d, 0xbc, 0x14, 0xca, 0x7e, 0xbd,
  0x1f, 0xd7, 0xda, 0xbb, 0x63, 0x9a, 0x2c, 0xbd, 0x0f, 0x84, 0x31, 0xbd,
  0xf9, 0x60, 0x1d, 0x3d, 0xf1, 0x24, 0x2a, 0xbd, 0xf9, 0x20, 0xdb, 0xbc,
  0xa4, 0x15, 0xd1, 0x3b, 0xd1, 0xe5, 0x53, 0xbd, 0x58, 0xba, 0x1b, 0x3c,
  0x88, 0x70, 0xb3, 0xbc, 0xfc, 0xa3, 0x3a, 0x3d, 0xee, 0x9c, 0x6c, 0x3d,
  0x70, 0xd8, 0x69, 0x3c, 0x5e, 0x44, 0xf6, 0xbd, 0xe6, 0xe8, 0x59, 0xbd,
  0xd4, 0xc9, 0x9e, 0x3d, 0x63, 0xbd, 0x8f, 0xbd, 0x2a, 0x61, 0x55, 0x3d,
  0xa3, 0xa9, 0x8c, 0xbd, 0xd5, 0x3f, 0x92, 0xbd, 0xfd, 0x08, 0x70, 0x3d,
  0xd0, 0xf2, 0x0b, 0xbe, 0x37, 0x0d, 0x93, 0xbd, 0x0d, 0xde, 0x8c, 0x3e,
  0x44, 0xa6, 0xe7, 0x3d, 0x44, 0xdc, 0x9a, 0x3d, 0xaa, 0xcc, 0x1d, 0xbd,
  0x22, 0xcb, 0x12, 0xbe, 0xc0, 0x27, 0x06, 0xbd, 0xd6, 0xd3, 0xca, 0xbc,
  0x4f, 0xfb, 0xdb, 0xbd, 0xce, 0x4b, 0x6d, 0x3e, 0xbd, 0x72, 0x65, 0xbc,
  0xee, 0xf2, 0x47, 0xbd, 0x2f, 0xb7, 0x14, 0x3b, 0x29, 0xa2, 0x45, 0xbd,
  0x72, 0x5f, 0x93, 0xbd, 0x11, 0x6f, 0x06, 0xbd, 0xaa, 0x38, 0x62, 0xbd,
  0x21, 0x99, 0x7e, 0x3d, 0xe2, 0x6f, 0x19, 0xba, 0x35, 0xda, 0x9f, 0xbc,
  0xca, 0x73, 0x8e, 0x3d, 0x68, 0x08, 0x01, 0x3d, 0xa3, 0x4c, 0xa4, 0xbd,
  0x10, 0x06, 0xcc, 0x3d, 0x05, 0x5c, 0x4e, 0x3d, 0x87, 0xc9, 0x0f, 0xbe,
  0xf9, 0x74, 0xb4, 0xbb, 0x3e, 0xa3, 0x09, 0x3e, 0x75, 0x8e, 0x84, 0xbc,
  0x87, 0x2b, 0xea, 0x3b, 0x63, 0x5e, 0x86, 0xbc, 0x89, 0xc8, 0x16, 0x3e,
  0x68, 0xe2, 0xc7, 0x3d, 0x59, 0x5b, 0x4c, 0xbe, 0x64, 0xc8, 0xbc, 0xbd,
  0xb6, 0x13, 0x9d, 0x3d, 0x4a, 0xd1, 0xd5, 0xbd, 0x4d, 0x97, 0x81, 0x3d,
  0xb2, 0xac, 0xad, 0x3d, 0x45, 0xfa, 0xd9, 0x3d, 0x2c, 0xd1, 0xff, 0x3d,
  0x06, 0xc3, 0x3a, 0xbe, 0x1e, 0x15, 0x52, 0xbd, 0xa1, 0x6d, 0x08, 0xbe,
  0x10, 0x6d, 0x2e, 0xbc, 0x21, 0xbe, 0x29, 0x3c, 0x12, 0xee, 0xfc, 0x3c,
  0x91, 0xe5, 0xa3, 0x3d, 0xda, 0x58, 0xfc, 0x3d, 0x1a, 0xb0, 0x10, 0xbe,
  0x33, 0x33, 0x0c, 0xbd, 0x6d, 0x65, 0xe6, 0xbd, 0xa1, 0x46, 0x9f, 0xbc,
  0xc1, 0xe5, 0x32, 0x3c, 0xe6, 0x8f, 0x62, 0x3d, 0x52, 0xa8, 0x03, 0x3e,
  0x26, 0x9c, 0xb4, 0xbc, 0xda, 0x2a, 0x90, 0x3d, 0x6a, 0x65, 0xf8, 0xbd,
  0x56, 0x48, 0x87, 0x3c, 0x91, 0xe4, 0x16, 0x3d, 0xa3, 0x88, 0xd6, 0x3d,
  0x64, 0x01, 0xd7, 0xbb, 0x11, 0x4a, 0xa8, 0x3e, 0x3f, 0xbe, 0x05, 0xbd,
  0x2d, 0xd7, 0xff, 0x3d, 0xff, 0x1f, 0x0e, 0xbd, 0xb5, 0x69, 0xba, 0x3d,
  0x92, 0xb5, 0xce, 0x3d, 0x0b, 0xad, 0x46, 0x3e, 0x68, 0xdf, 0x6f, 0x3c,
  0x40, 0xb8, 0x79, 0xbd, 0xaa, 0x58, 0x63, 0xbd, 0x24, 0x1f, 0xfa, 0x3d,
  0xe5, 0x18, 0x36, 0xbe, 0xbb, 0x1b, 0xbf, 0xbd, 0xe0, 0xad, 0x7d, 0xbc,
  0x7a, 0x1e, 0xbc, 0xbd, 0xe7, 0x42, 0x5d, 0x3d, 0x27, 0x86, 0xa1, 0xbc,
  0xd7, 0xa1, 0x5a, 0x3b, 0x4e, 0xd0, 0xa1, 0x3d, 0x73, 0xda, 0x35, 0x3b,
  0x0f, 0x27, 0xb7, 0x3d, 0xba, 0x31, 0x8f, 0x3c, 0x53, 0x76, 0x82, 0x3c,
  0x4d, 0xff, 0x34, 0x3d, 0x15, 0xbd, 0xe7, 0xbd, 0x4b, 0xa4, 0xb1, 0x3b,
  0x10, 0xa4, 0x96, 0x3d, 0xe4, 0x75, 0xe0, 0xbd, 0x80, 0x48, 0xf3, 0xbc,
  0x00, 0x67, 0x68, 0x3c, 0x96, 0xc6, 0x54, 0xbd, 0x74, 0x7a, 0x6b, 0x3d,
  0xae, 0xa1, 0x0c, 0xbe, 0x10, 0x50, 0x16, 0x3d, 0x0c, 0x52, 0xa8, 0x3d,
  0xd2, 0x46, 0x2b, 0xbd, 0x73, 0x9b, 0xac, 0xbd, 0xa4, 0xe3, 0x9d, 0x3c,
  0x02, 0x55, 0xa3, 0xbd, 0x61, 0x94, 0x76, 0x3d, 0x10, 0x42, 0x2a, 0xbd,
  0xd0, 0x77, 0x11, 0x3c, 0x6f, 0xb4, 0x0a, 0x3d, 0x2a, 0x68, 0xa5, 0xbc,
  0xc1, 0xec, 0xb7, 0xbd, 0x25, 0x18, 0xe1, 0x3b, 0x0e, 0x5a, 0x67, 0x3c,
  0xdc, 0xc3, 0x39, 0x3d, 0xf6, 0x3d, 0x47, 0x3d, 0xee, 0x88, 0x26, 0x3d,
  0xcc, 0x06, 0xb4, 0xbd, 0x55, 0xe8, 0x86, 0x3c, 0x25, 0xe8, 0x0f, 0x3c,
  0x16, 0x7d, 0x73, 0x3b, 0x31, 0x23, 0xb3, 0x3d, 0x66, 0x15, 0xbd, 0x3c,
  0x4a, 0xfc, 0x16, 0x3d, 0x53, 0xb9, 0x29, 0x3d, 0x9b, 0xff, 0x1d, 0xbe,
  0x48, 0xc7, 0x24, 0x3b, 0xe4, 0x4b, 0x9f, 0x3d, 0x33, 0x95, 0x26, 0xbd,
  0xe9, 0x40, 0x12, 0x3d, 0xaf, 0x30, 0x0f, 0x3d, 0xd6, 0xea, 0x49, 0xbd,
  0x9c, 0x9c, 0xf8, 0x3c, 0x97, 0xca, 0x19, 0xbe, 0x18, 0x78, 0x4b, 0xbd,
  0x6a, 0x4e, 0x01, 0x3d, 0x57, 0xce, 0x93, 0xbd, 0xae, 0x6a, 0x25, 0xbd,
  0xaa, 0x82, 0x98, 0x3d, 0x27, 0x6e, 0x88, 0xbd, 0x26, 0x00, 0x2c, 0x3d,
  0x01, 0x5f, 0xab, 0xbd, 0xc0, 0xba, 0xd5, 0xbc, 0x2a, 0xc5, 0xef, 0xbd,
  0x1c, 0x8f, 0x2b, 0x3d, 0x72, 0x24, 0xa7, 0xbd, 0xc6, 0xc4, 0xae, 0x3d,
  0xb2, 0x04, 0xa8, 0x3d, 0x63, 0xed, 0xa4, 0x3d, 0xaa, 0xb1, 0xc5, 0xbb,
  0xdd, 0x2b, 0x82, 0x3b, 0x38, 0xbb, 0x1f, 0xbe, 0xc8, 0x46, 0x62, 0x3d,
  0x3b, 0x81, 0xe0, 0x3a, 0x9a, 0xa1, 0x7d, 0x3d, 0x31, 0xd4, 0x66, 0x3e,
  0x62, 0x79, 0x6c, 0x3c, 0x1c, 0x4a, 0x2e, 0x3d, 0xb6, 0xe5, 0xe5, 0xbc,
  0x34, 0x41, 0x83, 0xbd, 0x0b, 0x41, 0xef, 0x3c, 0x39, 0x74, 0xb8, 0x3d,
  0x3e, 0x4d, 0xca, 0xba, 0x94, 0xa3, 0x71, 0x3e, 0x4b, 0x43, 0xbd, 0xbc,
  0xfa, 0x31, 0x87, 0x3d, 0x80, 0x6c, 0x4e, 0xbd, 0x33, 0x34, 0x60, 0x3d,
  0xee, 0x45, 0x98, 0x3d, 0x83, 0x78, 0xb7, 0x3d, 0x51, 0x86, 0xdc, 0xbd,
  0x83, 0xd8, 0x4b, 0x3e, 0x57, 0x51, 0xa9, 0xbd, 0x5f, 0xe0, 0xa6, 0x3c,
  0x53, 0x51, 0xd9, 0xbd, 0xd0, 0x73, 0x78, 0x3d, 0xbd, 0x57, 0x1d, 0x3d,
  0xec, 0x40, 0x17, 0x3e, 0xd1, 0x20, 0x86, 0xbe, 0xd6, 0x84, 0xeb, 0xbb,
  0x3f, 0x69, 0xd5, 0xbd, 0x50, 0x3a, 0xe3, 0xbd, 0x09, 0xa1, 0xa6, 0x3c,
  0x01, 0x39, 0x44, 0x3d, 0x14, 0x8b, 0xbe, 0x3d, 0xfb, 0x49, 0x91, 0x3d,
  0xa8, 0xc8, 0xd9, 0xbc, 0xc5, 0x5b, 0xb3, 0xbd, 0xbc, 0x7e, 0xa4, 0xbc,
  0x19, 0x4e, 0x27, 0xbd, 0x9f, 0x3e, 0x1f, 0x3d, 0xac, 0x9e, 0x1b, 0xbd,
  0x60, 0x6b, 0xa7, 0x3c, 0x7e, 0xab, 0x9b, 0xbb, 0x98, 0x8d, 0x89, 0xbc,
  0x01, 0x01, 0x13, 0xbd, 0xcf, 0x10, 0x06, 0xbd, 0xf8, 0x38, 0x8c, 0x3c,
  0x00, 0x84, 0x52, 0x3d, 0xca, 0x4c, 0xce, 0xba, 0x17, 0x16, 0x7f, 0xbb,
  0x76, 0x81, 0x8b, 0xbc, 0x94, 0x43, 0x0e, 0x3c, 0x8f, 0x73, 0x5f, 0xbd,
  0x58, 0xb1, 0x15, 0xbd, 0x6f, 0x15, 0x5a, 0x3d, 0x75, 0x4b, 0x8a, 0x3d,
  0xf9, 0x69, 0xc0, 0x3a, 0x07, 0xd3, 0x68, 0xbc, 0x70, 0x71, 0xb8, 0xbc,
  0xf6, 0xb6, 0x07, 0x3c, 0xcf, 0x92, 0xda, 0xbc, 0x17, 0x97, 0x22, 0xbd,
  0xba, 0xd2, 0x90, 0x3d, 0x8d, 0xb8, 0x61, 0x3c, 0x1f, 0x06, 0x3c, 0xbc,
  0x4b, 0xe4, 0x17, 0x3c, 0xc2, 0xb4, 0xba, 0x3c, 0x74, 0xe1, 0x34, 0xbd,
  0x06, 0x01, 0xcd, 0x3b, 0xdf, 0x84, 0xef, 0xbc, 0x45, 0x53, 0xb5, 0x3c,
  0x40, 0xf5, 0xe3, 0xbc, 0xcd, 0xa0, 0xd8, 0xbc, 0x90, 0xc9, 0x13, 0x3d,
  0x59, 0x2a, 0x67, 0x3d, 0x6a, 0x0f, 0x72, 0xbd, 0x5b, 0x21, 0x66, 0x3c,
  0x79, 0x95, 0x62, 0xbc, 0x17, 0x22, 0x70, 0xbc, 0xc2, 0xda, 0xc2, 0xbb,
  0x2e, 0x3b, 0xee, 0xba, 0x92, 0xbb, 0x2f, 0x3d, 0xa7, 0x77, 0x52, 0x3d,
  0xf6, 0x98, 0xd0, 0xbc, 0xa6, 0x24, 0xec, 0x3c, 0x45, 0x12, 0xd8, 0xbc,
  0xba, 0x76, 0x83, 0x3c, 0xb0, 0x26, 0x24, 0xbd, 0x02, 0xf1, 0x47, 0x3b,
  0x6d, 0x9e, 0x53, 0xbb, 0xe2, 0xd4, 0x9b, 0x3d, 0x1d, 0x69, 0xe7, 0x3b,
  0xbc, 0x38, 0xaf, 0xba, 0xe9, 0xb0, 0xb4, 0xbc, 0x5f, 0xc7, 0x93, 0x3d,
  0x04, 0x40, 0x7c, 0xbd, 0x15, 0x0f, 0x1f, 0xbd, 0x43, 0x9e, 0x56, 0xbc,
  0xb8, 0x35, 0x81, 0x3d, 0xb2, 0xef, 0xda, 0x3c, 0x9f, 0x9e, 0xf0, 0xbc,
  0x43, 0xb7, 0xd9, 0x3b, 0xb2, 0xb4, 0x8d, 0x3d, 0x79, 0x41, 0xb4, 0xbd,
  0xdf, 0x71, 0x86, 0xbd, 0x2a, 0xa7, 0x86, 0x3c, 0xc0, 0x2a, 0xa8, 0x3c,
  0xa5, 0xe7, 0xdc, 0x3c, 0x3d, 0x44, 0x74, 0xbc, 0xe4, 0x31, 0x26, 0x3b,
  0xa0, 0x24, 0xe1, 0x3d, 0xf0, 0xc4, 0xb6, 0xbd, 0xb7, 0x59, 0x8b, 0xbd,
  0x58, 0x7a, 0x00, 0x3d, 0x1b, 0x28, 0x9e, 0x3c, 0x24, 0x8e, 0x5f, 0x3b,
  0x37, 0x4a, 0x99, 0x3c, 0x53, 0xf4, 0xdd, 0xbc, 0xd4, 0x11, 0x2f, 0x3e,
  0xb4, 0xf2, 0x88, 0xbd, 0x9c, 0x7f, 0xa3, 0xbd, 0xd9, 0x23, 0x3e, 0x3d,
  0x6b, 0x42, 0xb9, 0x3c, 0xad, 0xfb, 0x88, 0xbd, 0x87, 0x1b, 0xd8, 0x3c,
  0xc4, 0x26, 0x6c, 0xbd, 0x9e, 0x46, 0x2d, 0x3e, 0x02, 0x19, 0x2d, 0xbd,
  0xfa, 0xef, 0x2c, 0xbc, 0xfb, 0x59, 0x6c, 0x3d, 0x6f, 0x1c, 0xf1, 0x3d,
  0xc5, 0xb0, 0x5c, 0xbe, 0x72, 0x96, 0xeb, 0xbd, 0x26, 0x16, 0xc3, 0xbd,
  0x77, 0xb7, 0x2b, 0x3e, 0xf7, 0xe4, 0x10, 0xbe, 0xb6, 0x2a, 0xdc, 0xba,
  0x89, 0xec, 0x00, 0x3d, 0x9a, 0x8a, 0x68, 0xbc, 0xbe, 0x1f, 0xaf, 0x3c,
  0x30, 0xc1, 0x33, 0xbd, 0x6b, 0xb3, 0xd2, 0xbc, 0xfb, 0x75, 0x1f, 0x3d,
  0x43, 0x07, 0xab, 0xba, 0xa0, 0x3d, 0xef, 0x3c, 0x89, 0x05, 0x8c, 0x3c,
  0xe3, 0xa6, 0xd5, 0x3b, 0xa5, 0xfd, 0xab, 0x39, 0xd9, 0x47, 0xdc, 0xbc,
  0xfc, 0x22, 0xe6, 0xbc, 0x65, 0x40, 0x39, 0x3d, 0x78, 0x56, 0xe4, 0x3c,
  0x44, 0xaf, 0x8e, 0x3c, 0xd8, 0x4b, 0x41, 0xbb, 0xd6, 0x34, 0x6d, 0xbc,
  0x35, 0x26, 0x8d, 0xbc, 0xdd, 0x05, 0x0a, 0x3c, 0x86, 0xa8, 0x19, 0xbd,
  0x81, 0x9f, 0x22, 0x3d, 0xd9, 0x9c, 0x7c, 0x3b, 0x05, 0xfd, 0xec, 0xbb,
  0xf9, 0x30, 0x32, 0x3c, 0xe3, 0x1a, 0x77, 0xbc, 0x97, 0x1b, 0xc1, 0xbc,
  0x83, 0x1c, 0x20, 0x3d, 0x16, 0xf2, 0x38, 0xbc, 0xbd, 0xa5, 0x6a, 0x3c,
  0x84, 0x43, 0xcc, 0xbc, 0x66, 0xc3, 0xcf, 0xbc, 0x8e, 0xfb, 0xa4, 0x3c,
  0x10, 0xb0, 0xa3, 0xbc, 0x1e, 0x71, 0x8f, 0xbc, 0x75, 0x33, 0xd3, 0x3c,
  0x45, 0x12, 0xb2, 0x3c, 0x45, 0x7a, 0x98, 0xbc, 0x04, 0x53, 0x3c, 0xbd,
  0x9f, 0xc7, 0x02, 0x3c, 0x41, 0x3e, 0x60, 0xbb, 0x66, 0x01, 0x49, 0x3c,
  0xa7, 0x30, 0x8a, 0xbb, 0xa3, 0xfc, 0x0e, 0xba, 0xe5, 0xdb, 0xec, 0x3c,
  0x66, 0xfd, 0x35, 0xbc, 0x1b, 0xe7, 0x5d, 0xbd, 0x4b, 0x08, 0x72, 0x3c,
  0x1d, 0x47, 0xfa, 0xbb, 0x91, 0xc3, 0x57, 0x3d, 0x14, 0x45, 0xfb, 0x3c,
  0xd0, 0x16, 0x0b, 0xbd, 0x5f, 0x5c, 0x1e, 0x3c, 0x62, 0x9a, 0x61, 0x3c,
  0xb4, 0x1f, 0x02, 0xbd, 0x64, 0x16, 0x95, 0x3b, 0x64, 0x34, 0x70, 0xbc,
  0x3b, 0xfa, 0x42, 0x3c, 0x8a, 0x5c, 0x3f, 0x3d, 0x04, 0x25, 0x58, 0xbd,
  0xa6, 0xd5, 0xfc, 0xbc, 0xa9, 0xe2, 0x2e, 0x3d, 0x83, 0x72, 0x09, 0xbc,
  0x59, 0x9d, 0xfd, 0x3c, 0x75, 0xb2, 0xb6, 0xbc, 0xf9, 0xc4, 0x22, 0xbd,
  0x35, 0x39, 0xe2, 0x3c, 0x1e, 0x51, 0x3c, 0xbd, 0x93, 0xe6, 0x20, 0xbd,
  0x1e, 0x11, 0x6f, 0x3d, 0xfc, 0x67, 0x21, 0xbb, 0xd9, 0xee, 0x56, 0x3d,
  0x5d, 0x3c, 0x63, 0xbc, 0xc0, 0x95, 0x23, 0xbd, 0x2f, 0x85, 0x52, 0x3b,
  0xe5, 0x4a, 0xe8, 0xbc, 0x7d, 0x27, 0x97, 0xbc, 0xbd, 0x51, 0x6d, 0x3d,
  0x67, 0x80, 0xa8, 0xbc, 0x5f, 0x10, 0x17, 0x3d, 0x20, 0x09, 0xbe, 0x3a,
  0x89, 0x6d, 0x68, 0xbd, 0xa9, 0x12, 0x35, 0xbc, 0x04, 0x2a, 0x13, 0x3c,
  0x58, 0xe1, 0xad, 0x3b, 0xfb, 0x44, 0x73, 0x3d, 0x26, 0x86, 0x7a, 0xbd,
  0x96, 0x72, 0x3d, 0x3c, 0x73, 0xa6, 0x32, 0x3c, 0x89, 0x6c, 0x8f, 0xbd,
  0x85, 0x4a, 0x13, 0x3b, 0x85, 0x2b, 0xf1, 0x3b, 0xf8, 0xd9, 0x91, 0x3c,
  0x90, 0xca, 0x23, 0x3d, 0xbf, 0x69, 0xb0, 0xbd, 0x8f, 0x35, 0x08, 0xbc,
  0x76, 0x8a, 0x24, 0x3d, 0x75, 0xed, 0x10, 0xbe, 0xbd, 0x1e, 0x8f, 0x3c,
  0x6b, 0x52, 0x2e, 0x3c, 0x35, 0xf3, 0x79, 0x3c, 0xd2, 0xa3, 0x04, 0x3d,
  0x11, 0xb2, 0xcd, 0xbd, 0x63, 0x13, 0x1c, 0x3e, 0xd0, 0xf8, 0xb3, 0x3d,
  0xc6, 0xf8, 0xff, 0xff, 0x04, 0x00, 0x00, 0x00, 0x08, 0x00, 0x00, 0x00,
  0xff, 0xff, 0xff, 0xff, 0x68, 0x00, 0x00, 0x00, 0xda, 0xf8, 0xff, 0xff,
  0x04, 0x00, 0x00, 0x00, 0x0c, 0x00, 0x00, 0x00, 0x01, 0x00, 0x00, 0x00,
  0x01, 0x00, 0x00, 0x00, 0x09, 0x00, 0x00, 0x00, 0xf2, 0xf8, 0xff, 0xff,
  0x04, 0x00, 0x00, 0x00, 0x24, 0x00, 0x00, 0x00, 0xd4, 0x7c, 0xc4, 0x3d,
  0x5d, 0xe6, 0x93, 0xbc, 0xc7, 0xc0, 0xb0, 0xbd, 0x86, 0xa9, 0x8e, 0xbd,
  0x8e, 0xcd, 0x27, 0x3e, 0x56, 0xa7, 0xf5, 0xbd, 0x7e, 0x4c, 0x6a, 0xbe,
  0x33, 0x86, 0xcc, 0x3e, 0x86, 0x8e, 0x71, 0x3d, 0x22, 0xf9, 0xff, 0xff,
  0x04, 0x00, 0x00, 0x00, 0x00, 0x03, 0x00, 0x00, 0x8b, 0x05, 0xfe, 0xbd,
  0xd1, 0x8b, 0xa8, 0x3e, 0x7a, 0x63, 0x92, 0xbe, 0xa0, 0x12, 0x91, 0x3e,
  0xe4, 0x1b, 0xbc, 0xbe, 0x38, 0xdd, 0xa6, 0xbd, 0x9e, 0x65, 0x34, 0xbe,
  0xfd, 0x6a, 0x96, 0x3e, 0x59, 0x1d, 0xd5, 0x3c, 0x00, 0xc7, 0xdf, 0x3e,
  0x14, 0x9e, 0x8d, 0x3e, 0x8e, 0xfa, 0xd7, 0x3d, 0x06, 0x16, 0xa7, 0xbe,
  0x94, 0x12, 0x38, 0xbd, 0xa1, 0x6d, 0x06, 0xbf, 0x49, 0x8b, 0xe6, 0x3c,
  0xb7, 0x81, 0x15, 0x3f, 0x07, 0x3f, 0xad, 0x3d, 0x66, 0x12, 0x8e, 0xbc,
  0x9f, 0x5d, 0x9c, 0xbd, 0x0c, 0x80, 0x1c, 0x3d, 0x87, 0xaf, 0xd8, 0x3d,
  0x76, 0xa3, 0xeb, 0xbe, 0x22, 0x2b, 0x9b, 0x3e, 0xd2, 0x1a, 0x3c, 0x3e,
  0x14, 0x53, 0x87, 0xbe, 0x3f, 0xb7, 0x97, 0x3d, 0xec, 0x65, 0x3c, 0x3e,
  0x4e, 0x9c, 0x87, 0xbe, 0x64, 0x85, 0x5c, 0x3e, 0x9a, 0xce, 0xdc, 0x3d,
  0xc3, 0xa1, 0x65, 0xbe, 0xd2, 0x6b, 0x15, 0xbe, 0x9b, 0x6e, 0xe4, 0xbc,
  0x4a, 0x2f, 0xe6, 0x3e, 0xec, 0x4c, 0xd9, 0xbd, 0xa9, 0xb7, 0x67, 0xbe,
  0x27, 0x09, 0xb3, 0xbd, 0xc6, 0x82, 0x07, 0xbe, 0x95, 0xa3, 0x45, 0xbe,
  0x1a, 0x09, 0x4c, 0xbe, 0xef, 0x2a, 0x76, 0x3e, 0x32, 0xc3, 0x99, 0x3e,
  0x10, 0xc1, 0xd1, 0x3c, 0xba, 0x83, 0xf5, 0x3c, 0x4e, 0xa0, 0xfa, 0x3e,
  0xba, 0x68, 0x9a, 0x3e, 0x29, 0x57, 0xc2, 0x3d, 0x33, 0x5d, 0x0f, 0xbf,
  0xe3, 0x26, 0x9d, 0xbe, 0x85, 0x6d, 0x69, 0x3d, 0x62, 0x1d, 0xd6, 0xbd,
  0x76, 0x3c, 0x03, 0x3f, 0x46, 0x24, 0x83, 0xbd, 0x38, 0x36, 0xa0, 0x3e,
  0x4b, 0x07, 0xf1, 0x3e, 0x5d, 0x66, 0xfb, 0xbe, 0xc1, 0xfa, 0x80, 0xbd,
  0xf3, 0x70, 0x02, 0x3d, 0x73, 0x48, 0x8f, 0xbe, 0x7b, 0x97, 0x13, 0xbd,
  0x09, 0x10, 0x81, 0x3e, 0xa8, 0x83, 0x24, 0xbe, 0x46, 0xea, 0x0f, 0xbd,
  0x17, 0x61, 0xb1, 0xbe, 0xc5, 0xce, 0x4a, 0xbe, 0x31, 0x18, 0x30, 0x3e,
  0x24, 0xf3, 0xc2, 0xbe, 0xdb, 0x04, 0xb5, 0x3e, 0x01, 0x94, 0x1e, 0xbe,
  0x54, 0xe5, 0x20, 0xbe, 0x08, 0x4f, 0x12, 0x3e, 0x6f, 0xd7, 0x8f, 0x3e,
  0xa9, 0xa8, 0x08, 0x3e, 0xda, 0xe5, 0x20, 0x3e, 0x9a, 0x00, 0x2c, 0x3d,
  0xc1, 0xd9, 0x24, 0x3e, 0x88, 0x3b, 0x66, 0x3e, 0x24, 0xbf, 0xa3, 0xbe,
  0xca, 0x8a, 0xd9, 0x3e, 0x33, 0x50, 0xfe, 0x3e, 0x63, 0x14, 0xcc, 0xbe,
  0x92, 0x58, 0xf2, 0x3d, 0xb1, 0xc4, 0x9f, 0xbb, 0x86, 0x86, 0x70, 0xbe,
  0x9d, 0x94, 0x76, 0xbd, 0x98, 0x74, 0xb2, 0xbc, 0x3e, 0x2f, 0x89, 0x3d,
  0x09, 0xe9, 0x54, 0x3e, 0x7a, 0x1f, 0x4f, 0x3e, 0x33, 0x73, 0x31, 0xbd,
  0x6e, 0xa4, 0x4e, 0xbe, 0xca, 0xa2, 0xec, 0x3e, 0x0b, 0xb3, 0x81, 0xbc,
  0x5d, 0x98, 0xbf, 0xbd, 0x8a, 0x73, 0xd9, 0x3e, 0xf3, 0xb2, 0x89, 0x3e,
  0x53, 0x0d, 0xb3, 0xbe, 0xf2, 0x1a, 0xdd, 0x3e, 0xaa, 0xd9, 0xa0, 0xbd,
  0x0c, 0x2e, 0x1b, 0xbe, 0x3f, 0xf7, 0xbd, 0xbe, 0xbe, 0x42, 0x0b, 0xbe,
  0xe4, 0x07, 0xb3, 0x3e, 0xfd, 0x99, 0xbc, 0x3e, 0x48, 0x51, 0xd6, 0xbe,
  0xca, 0x33, 0xea, 0x3e, 0x42, 0x65, 0xc7, 0x3d, 0xd5, 0x55, 0xcb, 0xbe,
  0x6a, 0xca, 0x43, 0xbc, 0x49, 0x83, 0xe1, 0x3e, 0x95, 0x6e, 0xc2, 0xbd,
  0x17, 0x5b, 0x0c, 0xbe, 0x5c, 0x23, 0x8a, 0xbe, 0x15, 0x7a, 0x11, 0xbe,
  0x0e, 0xe7, 0xa6, 0x3e, 0xdc, 0x9a, 0xbd, 0xbe, 0xe4, 0xc4, 0xc8, 0xbe,
  0x2d, 0xfe, 0x17, 0x3d, 0xc5, 0xc1, 0xdf, 0x3d, 0x8e, 0x2b, 0x53, 0xbe,
  0xa4, 0x0a, 0x3a, 0xbe, 0xcd, 0xfc, 0x81, 0x3d, 0xcd, 0x7f, 0xb2, 0x3e,
  0x13, 0x31, 0x61, 0x3e, 0xce, 0xb0, 0x04, 0xbf, 0x42, 0x7a, 0x9b, 0xbe,
  0x93, 0x3b, 0x09, 0xbe, 0x94, 0x34, 0xc6, 0xbc, 0x50, 0xc6, 0x72, 0xbd,
  0x38, 0xb1, 0xda, 0x3e, 0xc6, 0x4e, 0x2d, 0xba, 0xea, 0x69, 0x71, 0xbd,
  0xe6, 0xeb, 0x8a, 0xbe, 0xc7, 0x9d, 0xf0, 0xbd, 0xc2, 0xb8, 0xef, 0x3e,
  0x65, 0x80, 0x4d, 0xbd, 0x53, 0xae, 0x4c, 0xbe, 0x34, 0x16, 0xfc, 0x3e,
  0x2c, 0xad, 0xdf, 0x3e, 0x90, 0x05, 0x76, 0xbe, 0x5f, 0xec, 0x7d, 0xbe,
  0x02, 0x16, 0xad, 0xbe, 0x19, 0x15, 0xff, 0x3e, 0x74, 0x7b, 0x66, 0x3e,
  0x11, 0x4c, 0xa1, 0xbe, 0x3c, 0x40, 0x79, 0xbe, 0xa9, 0x9e, 0xb3, 0x3e,
  0x51, 0xf2, 0x5a, 0x3d, 0xf2, 0x61, 0x5c, 0xbe, 0xbf, 0x63, 0x75, 0x3e,
  0x81, 0x8a, 0x83, 0x3e, 0xf1, 0x7d, 0xbd, 0x3e, 0xfc, 0xad, 0x7e, 0xbe,
  0x8a, 0x93, 0x5a, 0xbe, 0x73, 0x80, 0x4c, 0xbe, 0x9c, 0xdc, 0xff, 0x3d,
  0xe6, 0x19, 0xa0, 0x3e, 0x4c, 0x07, 0xa1, 0x3e, 0xcb, 0x35, 0xfc, 0xbb,
  0x8e, 0x0e, 0x9d, 0xbe, 0x7f, 0xc6, 0xcb, 0xbe, 0x57, 0x30, 0x38, 0x3e,
  0xc9, 0xf6, 0xa7, 0x3e, 0x67, 0xfe, 0x75, 0x3d, 0x30, 0xaa, 0x16, 0x3f,
  0x8a, 0xd2, 0x9f, 0xbd, 0xca, 0xf2, 0xb6, 0x3c, 0x30, 0xf4, 0xb4, 0x3b,
  0x2d, 0xd6, 0x1c, 0xbd, 0x38, 0xe7, 0x90, 0x3e, 0x02, 0x45, 0x6f, 0x3e,
  0x3b, 0xcc, 0xba, 0x3e, 0x83, 0x7e, 0xcb, 0x3d, 0x18, 0xdc, 0x36, 0xbd,
  0xed, 0xf4, 0x74, 0x3e, 0xd3, 0x73, 0x04, 0xbe, 0x8e, 0xc0, 0x92, 0xbe,
  0xc6, 0xa5, 0x77, 0x3e, 0x12, 0xb8, 0xec, 0x3e, 0xd2, 0xcf, 0x62, 0xbc,
  0x13, 0xbf, 0x1b, 0xbe, 0x70, 0xd1, 0x35, 0xbe, 0xcf, 0x63, 0xb4, 0x3d,
  0xb8, 0x8a, 0xcf, 0x3d, 0xc3, 0x36, 0x41, 0xbc, 0x00, 0x2f, 0x89, 0xbe,
  0xd0, 0x0d, 0x0e, 0x3f, 0xa6, 0xc4, 0x37, 0x3c, 0xba, 0x02, 0x00, 0x3f,
  0x69, 0xac, 0xa9, 0xbe, 0x77, 0xdc, 0x88, 0xbd, 0x2e, 0xfc, 0xff, 0xff,
  0x04, 0x00, 0x00, 0x00, 0x60, 0x03, 0x00, 0x00, 0x37, 0x10, 0x43, 0x3d,
  0xcb, 0x07, 0xcc, 0x3d, 0xba, 0x74, 0x07, 0x3c, 0x07, 0xec, 0xb6, 0x3e,
  0x9f, 0x5c, 0x29, 0x3e, 0x9b, 0x57, 0x92, 0x3e, 0x8d, 0xb8, 0x09, 0x3f,
  0x89, 0x2b, 0x69, 0x3e, 0x7c, 0x17, 0x70, 0xbc, 0xa6, 0x73, 0x01, 0x3e,
  0x05, 0x3e, 0xdb, 0x3e, 0xd4, 0x7b, 0x8b, 0xbc, 0x53, 0x16, 0x96, 0x3e,
  0xef, 0x4e, 0x56, 0xbd, 0xcd, 0x0a, 0x9b, 0x3d, 0xcd, 0x9b, 0xee, 0x3e,
  0xa7, 0xbc, 0x83, 0xbe, 0x91, 0x3e, 0xd8, 0x3e, 0x74, 0xbb, 0xcc, 0xbd,
  0x62, 0xf0, 0x15, 0x3e, 0x02, 0x92, 0x09, 0xbd, 0x18, 0x7e, 0x48, 0x3f,
  0x78, 0x3d, 0x86, 0x3e, 0x1d, 0x77, 0x53, 0x3e, 0x43, 0x39, 0x82, 0x3d,
  0x5d, 0x08, 0x60, 0xbe, 0xf4, 0x3f, 0x45, 0x3e, 0x04, 0x86, 0x20, 0x3e,
  0x78, 0x85, 0x8a, 0x3d, 0x8b, 0x70, 0x61, 0xbc, 0xa1, 0x8f, 0xac, 0x3e,
  0x4e, 0x94, 0x05, 0xbe, 0x82, 0xb4, 0xb3, 0x3e, 0x8b, 0xfd, 0x0c, 0xbe,
  0x6c, 0x22, 0x68, 0x3e, 0xff, 0xdb, 0xad, 0xbe, 0xab, 0x2c, 0xc2, 0xbd,
  0x9d, 0x69, 0xab, 0xbe, 0xfc, 0x64, 0x14, 0x3c, 0xd6, 0xcc, 0xa6, 0x3e,
  0x2e, 0x1c, 0x51, 0x3d, 0xec, 0xbc, 0xdc, 0x3e, 0x1a, 0x6a, 0x84, 0xbe,
  0x7d, 0x52, 0x98, 0x3e, 0x18, 0xe7, 0xde, 0xbe, 0x72, 0xe0, 0x82, 0xbe,
  0x55, 0x41, 0xcc, 0xbe, 0xb8, 0x55, 0xfb, 0x3a, 0xf5, 0x76, 0xcd, 0x3d,
  0x90, 0x4f, 0x03, 0x3f, 0x55, 0x27, 0x21, 0x3c, 0xaf, 0xf3, 0x68, 0xbe,
  0xc9, 0xbe, 0xac, 0x3e, 0x58, 0xf6, 0xe8, 0xbe, 0x92, 0xbf, 0xb8, 0x3c,
  0x15, 0x18, 0xb1, 0x3e, 0xca, 0x24, 0x55, 0xbb, 0x01, 0x10, 0x85, 0x3e,
  0x26, 0x3b, 0x3f, 0x3e, 0x57, 0x7e, 0xa2, 0xbd, 0xef, 0x5a, 0xc7, 0xbe,
  0xb6, 0x1c, 0x96, 0xbe, 0xe0, 0x22, 0xc8, 0x3d, 0x05, 0x06, 0x99, 0xbd,
  0x0c, 0x30, 0xa6, 0x3e, 0x3f, 0xc8, 0xa3, 0xbb, 0x8c, 0x46, 0x90, 0x3e,
  0x82, 0x8f, 0xd8, 0x3c, 0xfc, 0x10, 0xbb, 0xbe, 0xeb, 0xe4, 0xcc, 0xbe,
  0xf6, 0xe0, 0x72, 0x3d, 0xce, 0xdb, 0xbf, 0xbe, 0xbe, 0x1f, 0x33, 0xbe,
  0xe9, 0x92, 0x0b, 0x3f, 0x07, 0x28, 0xe4, 0xbb, 0x10, 0xde, 0xb5, 0x3c,
  0xb3, 0x7f, 0xae, 0xbe, 0x26, 0x82, 0x91, 0xbc, 0xf7, 0x39, 0x0b, 0xbe,
  0x38, 0x1d, 0xa4, 0xbe, 0x2b, 0x8f, 0xe2, 0xbe, 0xb0, 0x80, 0xe9, 0x3d,
  0x20, 0x15, 0x92, 0xbe, 0x2e, 0xb1, 0xc5, 0x3c, 0xb5, 0x73, 0x5d, 0x3e,
  0x65, 0x6a, 0x3e, 0xbe, 0xb1, 0x4f, 0xdc, 0x3e, 0x6b, 0x19, 0xdf, 0x3e,
  0xf0, 0xd8, 0x04, 0x3e, 0x86, 0xe3, 0x0c, 0x3e, 0xb7, 0x79, 0xa4, 0xbe,
  0xbd, 0x8a, 0xfd, 0xbe, 0x1a, 0x6d, 0x04, 0xbd, 0xa6, 0x8c, 0xb2, 0xbe,
  0xcc, 0x27, 0xe5, 0xbe, 0x77, 0x6e, 0x38, 0xbe, 0xaa, 0x8e, 0x48, 0x3e,
  0xa4, 0x5b, 0x79, 0x3e, 0x3b, 0xa8, 0x9e, 0x3e, 0xb4, 0x74, 0xbd, 0xbe,
  0xa7, 0xf5, 0x73, 0xbe, 0xa6, 0xb0, 0x29, 0xbd, 0xbc, 0x1f, 0x62, 0xbe,
  0x99, 0x29, 0xc0, 0xbe, 0x75, 0xae, 0x07, 0xbe, 0x46, 0x82, 0x91, 0x3e,
  0xd1, 0x27, 0xa4, 0x3e, 0x43, 0x58, 0xad, 0x3e, 0xc5, 0x8b, 0x43, 0xbe,
  0x1c, 0x5c, 0xfa, 0xbd, 0xc7, 0xca, 0x4f, 0xbb, 0xe1, 0x4d, 0x05, 0x3f,
  0x79, 0x07, 0xaa, 0x3d, 0x7a, 0x61, 0xbe, 0xbe, 0xb8, 0x70, 0x97, 0x3e,
  0x7c, 0xfd, 0xaa, 0xbe, 0xab, 0xec, 0x8e, 0xbe, 0x1d, 0x71, 0x2c, 0xbc,
  0x3b, 0x9f, 0x54, 0xbe, 0xf0, 0xdc, 0x1a, 0xbc, 0xfd, 0xf0, 0x04, 0x3f,
  0x1e, 0x38, 0xb4, 0xbe, 0xad, 0x6a, 0xd6, 0xbe, 0xb0, 0x98, 0x9b, 0x3b,
  0x55, 0x3e, 0xae, 0xbc, 0x62, 0xd1, 0x96, 0xbe, 0x20, 0xa6, 0xa5, 0xbe,
  0x47, 0x0f, 0xe4, 0x3e, 0x65, 0x49, 0x20, 0xbc, 0x0a, 0x0f, 0x90, 0x3d,
  0x03, 0x91, 0xbc, 0x3e, 0xa0, 0x4d, 0x97, 0xbc, 0x81, 0xf6, 0x9e, 0xba,
  0xe4, 0x2b, 0xb4, 0xbe, 0x5e, 0x68, 0xe1, 0xbe, 0x65, 0x46, 0x69, 0xbe,
  0x2b, 0x62, 0x45, 0x3e, 0xa2, 0xa6, 0x55, 0xb9, 0x0c, 0xd6, 0x65, 0x3e,
  0x9d, 0x40, 0x8d, 0xbe, 0x4c, 0x21, 0xaf, 0x3e, 0x45, 0x51, 0x4d, 0xbe,
  0xf0, 0x5e, 0xd9, 0xbe, 0x79, 0x83, 0xbe, 0x3e, 0xe7, 0xc3, 0x77, 0xbe,
  0xce, 0xfc, 0x21, 0xbe, 0xcc, 0xf5, 0x5b, 0xbc, 0xc8, 0xe9, 0x09, 0xbf,
  0xd3, 0x8e, 0x02, 0x3e, 0x11, 0x71, 0x9d, 0xbe, 0xf3, 0xaa, 0x50, 0x3e,
  0x11, 0x62, 0x75, 0xbe, 0xd4, 0x31, 0xc9, 0x3d, 0xc7, 0x1e, 0x35, 0xbc,
  0x83, 0x14, 0xe7, 0x3c, 0x44, 0x0b, 0xc8, 0x3c, 0x2a, 0x51, 0xa4, 0xbf,
  0xfc, 0x91, 0xcc, 0x3c, 0xe8, 0x1a, 0x20, 0xbe, 0xd5, 0x14, 0x2a, 0xbd,
  0x7d, 0x75, 0xf3, 0xbc, 0x16, 0x8c, 0xf9, 0x3d, 0x29, 0x24, 0x04, 0x3d,
  0xed, 0xd2, 0x63, 0xbd, 0xfc, 0xd3, 0x0e, 0xbc, 0xa9, 0xdd, 0x7e, 0x3e,
  0xa6, 0xda, 0x9b, 0xbe, 0xb7, 0x7f, 0x18, 0xbe, 0x66, 0x28, 0x89, 0xbd,
  0x75, 0xa5, 0x1f, 0xbe, 0x48, 0x45, 0xc0, 0x3b, 0x78, 0x87, 0x14, 0x3e,
  0x58, 0xdc, 0xdd, 0xbd, 0x23, 0x25, 0xf9, 0x3b, 0xf6, 0xd4, 0xf7, 0xbe,
  0x67, 0xd6, 0x66, 0x3d, 0x00, 0x97, 0x4e, 0xbe, 0x3b, 0x7b, 0xd1, 0xbe,
  0xdf, 0x89, 0x83, 0xbe, 0xcc, 0xfd, 0x13, 0x3f, 0x1d, 0x47, 0xf7, 0x3d,
  0x50, 0x57, 0x64, 0x3e, 0xe3, 0x24, 0x3c, 0xbc, 0x51, 0x25, 0xf8, 0xbd,
  0xa2, 0x21, 0x6b, 0xbe, 0x86, 0x79, 0x96, 0xbe, 0xa0, 0xd0, 0x5f, 0xbe,
  0x97, 0xe0, 0xbf, 0x3d, 0x56, 0x1e, 0x02, 0x3f, 0x32, 0xf5, 0x40, 0x3e,
  0x7e, 0x92, 0x95, 0xbe, 0xe6, 0xee, 0x59, 0xba, 0x63, 0x91, 0xac, 0x3e,
  0xa4, 0xbc, 0xab, 0xbe, 0x2d, 0x4a, 0xf3, 0xbc, 0x02, 0x76, 0xbf, 0xbc,
  0x8b, 0x51, 0xd0, 0x3d, 0xdb, 0x02, 0xb2, 0x3e, 0x5b, 0xbb, 0xae, 0xbd,
  0xcd, 0xcc, 0xdf, 0xbd, 0x2b, 0xaa, 0xab, 0xbc, 0x03, 0x43, 0x5b, 0x3e,
  0x00, 0x4c, 0x0d, 0x3e, 0xf2, 0x8f, 0xd6, 0xbe, 0x4f, 0x94, 0x55, 0x3e,
  0xa8, 0x57, 0x10, 0x3d, 0xea, 0x01, 0xe5, 0x3e, 0xcc, 0x6a, 0x48, 0x3e,
  0x2b, 0x82, 0x23, 0xbe, 0x95, 0xe8, 0x4e, 0xbd, 0x59, 0x65, 0x3b, 0x3f,
  0x3f, 0x5a, 0x83, 0xbe, 0x02, 0xb1, 0x09, 0xbf, 0x84, 0x21, 0x09, 0x3e,
  0x01, 0xe4, 0x88, 0x3e, 0xa3, 0x7e, 0xbb, 0xbd, 0x9a, 0xff, 0xff, 0xff,
  0x04, 0x00, 0x00, 0x00, 0x10, 0x00, 0x00, 0x00, 0x01, 0x00, 0x00, 0x00,
  0x29, 0x00, 0x00, 0x00, 0x01, 0x00, 0x00, 0x00, 0x08, 0x00, 0x00, 0x00,
  0xb6, 0xff, 0xff, 0xff, 0x04, 0x00, 0x00, 0x00, 0x10, 0x00, 0x00, 0x00,
  0x01, 0x00, 0x00, 0x00, 0x01, 0x00, 0x00, 0x00, 0x2d, 0x00, 0x00, 0x00,
  0x09, 0x00, 0x00, 0x00, 0xd2, 0xff, 0xff, 0xff, 0x04, 0x00, 0x00, 0x00,
  0x20, 0x00, 0x00, 0x00, 0x64, 0x0e, 0x6f, 0x3e, 0x86, 0x09, 0x0d, 0x3e,
  0x9e, 0x11, 0x9f, 0xbe, 0x47, 0x15, 0xad, 0x3c, 0x09, 0xdb, 0xde, 0x3d,
  0x6b, 0x56, 0x37, 0x3d, 0xd9, 0x11, 0x65, 0xbe, 0x92, 0x20, 0x56, 0xbd,
  0x00, 0x00, 0x06, 0x00, 0x08, 0x00, 0x04, 0x00, 0x06, 0x00, 0x00, 0x00,
  0x04, 0x00, 0x00, 0x00, 0x20, 0x00, 0x00, 0x00, 0x7c, 0xf9, 0x5a, 0x3e,
  0x4f, 0x49, 0x1f, 0xbe, 0xe5, 0x3d, 0x1e, 0x3e, 0x0d, 0x4a, 0xe4, 0x3c,
  0x2a, 0x27, 0x94, 0xbe, 0x80, 0xe0, 0x89, 0x3e, 0x99, 0x1b, 0x28, 0x3e,
  0x70, 0x66, 0xae, 0x3e, 0x58, 0xf6, 0xff, 0xff, 0x5c, 0xf6, 0xff, 0xff,
  0x0f, 0x00, 0x00, 0x00, 0x4d, 0x4c, 0x49, 0x52, 0x20, 0x43, 0x6f, 0x6e,
  0x76, 0x65, 0x72, 0x74, 0x65, 0x64, 0x2e, 0x00, 0x01, 0x00, 0x00, 0x00,
  0x14, 0x00, 0x00, 0x00, 0x00, 0x00, 0x0e, 0x00, 0x18, 0x00, 0x14, 0x00,
  0x10, 0x00, 0x0c, 0x00, 0x08, 0x00, 0x04, 0x00, 0x0e, 0x00, 0x00, 0x00,
  0x14, 0x00, 0x00, 0x00, 0x1c, 0x00, 0x00, 0x00, 0xf0, 0x01, 0x00, 0x00,
  0xf4, 0x01, 0x00, 0x00, 0xf8, 0x01, 0x00, 0x00, 0x04, 0x00, 0x00, 0x00,
  0x6d, 0x61, 0x69, 0x6e, 0x00, 0x00, 0x00, 0x00, 0x08, 0x00, 0x00, 0x00,
  0xb4, 0x01, 0x00, 0x00, 0x54, 0x01, 0x00, 0x00, 0xfc, 0x00, 0x00, 0x00,
  0xd8, 0x00, 0x00, 0x00, 0x84, 0x00, 0x00, 0x00, 0x60, 0x00, 0x00, 0x00,
  0x28, 0x00, 0x00, 0x00, 0x04, 0x00, 0x00, 0x00, 0x76, 0xfe, 0xff, 0xff,
  0x08, 0x00, 0x00, 0x00, 0x0c, 0x00, 0x00, 0x00, 0x01, 0x00, 0x00, 0x00,
  0x12, 0x00, 0x00, 0x00, 0x02, 0x00, 0x00, 0x00, 0x11, 0x00, 0x00, 0x00,
  0x08, 0x00, 0x00, 0x00, 0xf6, 0xfe, 0xff, 0xff, 0x14, 0x00, 0x00, 0x00,
  0x00, 0x00, 0x00, 0x08, 0x10, 0x00, 0x00, 0x00, 0x14, 0x00, 0x00, 0x00,
  0x03, 0x00, 0x00, 0x00, 0x0c, 0xf7, 0xff, 0xff, 0x01, 0x00, 0x00, 0x00,
  0x11, 0x00, 0x00, 0x00, 0x03, 0x00, 0x00, 0x00, 0x10, 0x00, 0x00, 0x00,
  0x0a, 0x00, 0x00, 0x00, 0x07, 0x00, 0x00, 0x00, 0xca, 0xfe, 0xff, 0xff,
  0x08, 0x00, 0x00, 0x00, 0x0c, 0x00, 0x00, 0x00, 0x01, 0x00, 0x00, 0x00,
  0x10, 0x00, 0x00, 0x00, 0x02, 0x00, 0x00, 0x00, 0x0f, 0x00, 0x00, 0x00,
  0x09, 0x00, 0x00, 0x00, 0x4a, 0xff, 0xff, 0xff, 0x24, 0x00, 0x00, 0x00,
  0x00, 0x00, 0x00, 0x05, 0x34, 0x00, 0x00, 0x00, 0x38, 0x00, 0x00, 0x00,
  0x02, 0x00, 0x00, 0x00, 0x00, 0x00, 0x0e, 0x00, 0x18, 0x00, 0x17, 0x00,
  0x10, 0x00, 0x0c, 0x00, 0x08, 0x00, 0x04, 0x00, 0x0e, 0x00, 0x00, 0x00,
  0x03, 0x00, 0x00, 0x00, 0x01, 0x00, 0x00, 0x00, 0x03, 0x00, 0x00, 0x00,
  0x01, 0x00, 0x00, 0x00, 0x00, 0x00, 0x00, 0x01, 0x01, 0x00, 0x00, 0x00,
  0x0f, 0x00, 0x00, 0x00, 0x01, 0x00, 0x00, 0x00, 0x0e, 0x00, 0x00, 0x00,
  0x3a, 0xff, 0xff, 0xff, 0x08, 0x00, 0x00, 0x00, 0x0c, 0x00, 0x00, 0x00,
  0x01, 0x00, 0x00, 0x00, 0x0e, 0x00, 0x00, 0x00, 0x02, 0x00, 0x00, 0x00,
  0x0d, 0x00, 0x00, 0x00, 0x04, 0x00, 0x00, 0x00, 0xba, 0xff, 0xff, 0xff,
  0x14, 0x00, 0x00, 0x00, 0x00, 0x00, 0x00, 0x01, 0x20, 0x00, 0x00, 0x00,
  0x24, 0x00, 0x00, 0x00, 0x01, 0x00, 0x00, 0x00, 0xac, 0xff, 0xff, 0xff,
  0x00, 0x00, 0x00, 0x01, 0x01, 0x00, 0x00, 0x00, 0x01, 0x00, 0x00, 0x00,
  0x00, 0x00, 0x00, 0x01, 0x01, 0x00, 0x00, 0x00, 0x0d, 0x00, 0x00, 0x00,
  0x03, 0x00, 0x00, 0x00, 0x0c, 0x00, 0x00, 0x00, 0x06, 0x00, 0x00, 0x00,
  0x02, 0x00, 0x00, 0x00, 0x00, 0x00, 0x0e, 0x00, 0x18, 0x00, 0x14, 0x00,
  0x10, 0x00, 0x0c, 0x00, 0x0b, 0x00, 0x04, 0x00, 0x0e, 0x00, 0x00, 0x00,
  0x20, 0x00, 0x00, 0x00, 0x00, 0x00, 0x00, 0x01, 0x2c, 0x00, 0x00, 0x00,
  0x30, 0x00, 0x00, 0x00, 0x01, 0x00, 0x00, 0x00, 0x0c, 0x00, 0x14, 0x00,
  0x13, 0x00, 0x0c, 0x00, 0x08, 0x00, 0x07, 0x00, 0x0c, 0x00, 0x00, 0x00,
  0x00, 0x00, 0x00, 0x01, 0x01, 0x00, 0x00, 0x00, 0x01, 0x00, 0x00, 0x00,
  0x00, 0x00, 0x00, 0x01, 0x01, 0x00, 0x00, 0x00, 0x0c, 0x00, 0x00, 0x00,
  0x03, 0x00, 0x00, 0x00, 0x0b, 0x00, 0x00, 0x00, 0x05, 0x00, 0x00, 0x00,
  0x01, 0x00, 0x00, 0x00, 0x00, 0x00, 0x0a, 0x00, 0x0c, 0x00, 0x00, 0x00,
  0x08, 0x00, 0x04, 0x00, 0x0a, 0x00, 0x00, 0x00, 0x08, 0x00, 0x00, 0x00,
  0x0c, 0x00, 0x00, 0x00, 0x01, 0x00, 0x00, 0x00, 0x0b, 0x00, 0x00, 0x00,
  0x02, 0x00, 0x00, 0x00, 0x00, 0x00, 0x00, 0x00, 0x03, 0x00, 0x00, 0x00,
  0x01, 0x00, 0x00, 0x00, 0x12, 0x00, 0x00, 0x00, 0x01, 0x00, 0x00, 0x00,
  0x00, 0x00, 0x00, 0x00, 0x13, 0x00, 0x00, 0x00, 0x4c, 0x07, 0x00, 0x00,
  0xdc, 0x06, 0x00, 0x00, 0x84, 0x06, 0x00, 0x00, 0x30, 0x06, 0x00, 0x00,
  0xc4, 0x05, 0x00, 0x00, 0x70, 0x05, 0x00, 0x00, 0x1c, 0x05, 0x00, 0x00,
  0xc8, 0x04, 0x00, 0x00, 0x74, 0x04, 0x00, 0x00, 0x28, 0x04, 0x00, 0x00,
  0xe0, 0x03, 0x00, 0x00, 0x80, 0x03, 0x00, 0x00, 0x98, 0x02, 0x00, 0x00,
  0xc0, 0x01, 0x00, 0x00, 0x60, 0x01, 0x00, 0x00, 0x04, 0x01, 0x00, 0x00,
  0xb8, 0x00, 0x00, 0x00, 0x54, 0x00, 0x00, 0x00, 0x04, 0x00, 0x00, 0x00,
  0x16, 0xf9, 0xff, 0xff, 0x00, 0x00, 0x00, 0x01, 0x10, 0x00, 0x00, 0x00,
  0x10, 0x00, 0x00, 0x00, 0x13, 0x00, 0x00, 0x00, 0x28, 0x00, 0x00, 0x00,
  0x00, 0xf9, 0xff, 0xff, 0x19, 0x00, 0x00, 0x00, 0x53, 0x74, 0x61, 0x74,
  0x65, 0x66, 0x75, 0x6c, 0x50, 0x61, 0x72, 0x74, 0x69, 0x74, 0x69, 0x6f,
  0x6e, 0x65, 0x64, 0x43, 0x61, 0x6c, 0x6c, 0x3a, 0x30, 0x00, 0x00, 0x00,
  0x03, 0x00, 0x00, 0x00, 0x01, 0x00, 0x00, 0x00, 0x01, 0x00, 0x00, 0x00,
  0x09, 0x00, 0x00, 0x00, 0x62, 0xf9, 0xff, 0xff, 0x00, 0x00, 0x00, 0x01,
  0x10, 0x00, 0x00, 0x00, 0x10, 0x00, 0x00, 0x00, 0x12, 0x00, 0x00, 0x00,
  0x40, 0x00, 0x00, 0x00, 0x4c, 0xf9, 0xff, 0xff, 0x30, 0x00, 0x00, 0x00,
  0x73, 0x65, 0x71, 0x75, 0x65, 0x6e, 0x74, 0x69, 0x61, 0x6c, 0x2f, 0x64,
  0x65, 0x6e, 0x73, 0x65, 0x2f, 0x4d, 0x61, 0x74, 0x4d, 0x75, 0x6c, 0x3b,
  0x73, 0x65, 0x71, 0x75, 0x65, 0x6e, 0x74, 0x69, 0x61, 0x6c, 0x2f, 0x64,
  0x65, 0x6e, 0x73, 0x65, 0x2f, 0x42, 0x69, 0x61, 0x73, 0x41, 0x64, 0x64,
  0x00, 0x00, 0x00, 0x00, 0x02, 0x00, 0x00, 0x00, 0x01, 0x00, 0x00, 0x00,
  0x09, 0x00, 0x00, 0x00, 0xc2, 0xf9, 0xff, 0xff, 0x00, 0x00, 0x00, 0x01,
  0x10, 0x00, 0x00, 0x00, 0x10, 0x00, 0x00, 0x00, 0x11, 0x00, 0x00, 0x00,
  0x28, 0x00, 0x00, 0x00, 0xac, 0xf9, 0xff, 0xff, 0x1a, 0x00, 0x00, 0x00,
  0x73, 0x65, 0x71, 0x75, 0x65, 0x6e, 0x74, 0x69, 0x61, 0x6c, 0x2f, 0x66,
  0x6c, 0x61, 0x74, 0x74, 0x65, 0x6e, 0x2f, 0x52, 0x65, 0x73, 0x68, 0x61,
  0x70, 0x65, 0x00, 0x00, 0x02, 0x00, 0x00, 0x00, 0x01, 0x00, 0x00, 0x00,
  0x68, 0x00, 0x00, 0x00, 0x0a, 0xfa, 0xff, 0xff, 0x00, 0x00, 0x00, 0x01,
  0x10, 0x00, 0x00, 0x00, 0x10, 0x00, 0x00, 0x00, 0x10, 0x00, 0x00, 0x00,
  0x30, 0x00, 0x00, 0x00, 0xf4, 0xf9, 0xff, 0xff, 0x20, 0x00, 0x00, 0x00,
  0x73, 0x65, 0x71, 0x75, 0x65, 0x6e, 0x74, 0x69, 0x61, 0x6c, 0x2f, 0x6d,
  0x61, 0x78, 0x5f, 0x70, 0x6f, 0x6f, 0x6c, 0x69, 0x6e, 0x67, 0x31, 0x64,
  0x2f, 0x4d, 0x61, 0x78, 0x50, 0x6f, 0x6f, 0x6c, 0x00, 0x00, 0x00, 0x00,
  0x04, 0x00, 0x00, 0x00, 0x01, 0x00, 0x00, 0x00, 0x0d, 0x00, 0x00, 0x00,
  0x01, 0x00, 0x00, 0x00, 0x08, 0x00, 0x00, 0x00, 0x62, 0xfa, 0xff, 0xff,
  0x00, 0x00, 0x00, 0x01, 0x10, 0x00, 0x00, 0x00, 0x10, 0x00, 0x00, 0x00,
  0x0f, 0x00, 0x00, 0x00, 0x34, 0x00, 0x00, 0x00, 0x4c, 0xfa, 0xff, 0xff,
  0x24, 0x00, 0x00, 0x00, 0x73, 0x65, 0x71, 0x75, 0x65, 0x6e, 0x74, 0x69,
  0x61, 0x6c, 0x2f, 0x6d, 0x61, 0x78, 0x5f, 0x70, 0x6f, 0x6f, 0x6c, 0x69,
  0x6e, 0x67, 0x31, 0x64, 0x2f, 0x45, 0x78, 0x70, 0x61, 0x6e, 0x64, 0x44,
  0x69, 0x6d, 0x73, 0x31, 0x00, 0x00, 0x00, 0x00, 0x04, 0x00, 0x00, 0x00,
  0x01, 0x00, 0x00, 0x00, 0x29, 0x00, 0x00, 0x00, 0x01, 0x00, 0x00, 0x00,
  0x08, 0x00, 0x00, 0x00, 0xbe, 0xfa, 0xff, 0xff, 0x00, 0x00, 0x00, 0x01,
  0x10, 0x00, 0x00, 0x00, 0x10, 0x00, 0x00, 0x00, 0x0e, 0x00, 0x00, 0x00,
  0xac, 0x00, 0x00, 0x00, 0xa8, 0xfa, 0xff, 0xff, 0x9d, 0x00, 0x00, 0x00,
  0x73, 0x65, 0x71, 0x75, 0x65, 0x6e, 0x74, 0x69, 0x61, 0x6c, 0x2f, 0x63,
  0x6f, 0x6e, 0x76, 0x31, 0x64, 0x5f, 0x31, 0x2f, 0x52, 0x65, 0x6c, 0x75,
  0x3b, 0x73, 0x65, 0x71, 0x75, 0x65, 0x6e, 0x74, 0x69, 0x61, 0x6c, 0x2f,
  0x63, 0x6f, 0x6e, 0x76, 0x31, 0x64, 0x5f, 0x31, 0x2f, 0x42, 0x69, 0x61,
  0x73, 0x41, 0x64, 0x64, 0x3b, 0x73, 0x65, 0x71, 0x75, 0x65, 0x6e, 0x74,
  0x69, 0x61, 0x6c, 0x2f, 0x63, 0x6f, 0x6e, 0x76, 0x31, 0x64, 0x5f, 0x31,
  0x2f, 0x43, 0x6f, 0x6e, 0x76, 0x31, 0x44, 0x2f, 0x53, 0x71, 0x75, 0x65,
  0x65, 0x7a, 0x65, 0x3b, 0x73, 0x65, 0x71, 0x75, 0x65, 0x6e, 0x74, 0x69,
  0x61, 0x6c, 0x2f, 0x63, 0x6f, 0x6e, 0x76, 0x31, 0x64, 0x5f, 0x31, 0x2f,
  0x42, 0x69, 0x61, 0x73, 0x41, 0x64, 0x64, 0x2f, 0x52, 0x65, 0x61, 0x64,
  0x56, 0x61, 0x72, 0x69, 0x61, 0x62, 0x6c, 0x65, 0x4f, 0x70, 0x3b, 0x73,
  0x65, 0x71, 0x75, 0x65, 0x6e, 0x74, 0x69, 0x61, 0x6c, 0x2f, 0x63, 0x6f,
  0x6e, 0x76, 0x31, 0x64, 0x5f, 0x31, 0x2f, 0x43, 0x6f, 0x6e, 0x76, 0x31,
  0x44, 0x00, 0x00, 0x00, 0x04, 0x00, 0x00, 0x00, 0x01, 0x00, 0x00, 0x00,
  0x01, 0x00, 0x00, 0x00, 0x29, 0x00, 0x00, 0x00, 0x08, 0x00, 0x00, 0x00,
  0x92, 0xfb, 0xff, 0xff, 0x00, 0x00, 0x00, 0x01, 0x10, 0x00, 0x00, 0x00,
  0x10, 0x00, 0x00, 0x00, 0x0d, 0x00, 0x00, 0x00, 0xbc, 0x00, 0x00, 0x00,
  0x7c, 0xfb, 0xff, 0xff, 0xae, 0x00, 0x00, 0x00, 0x73, 0x65, 0x71, 0x75,
  0x65, 0x6e, 0x74, 0x69, 0x61, 0x6c, 0x2f, 0x63, 0x6f, 0x6e, 0x76, 0x31,
  0x64, 0x2f, 0x52, 0x65, 0x6c, 0x75, 0x3b, 0x73, 0x65, 0x71, 0x75, 0x65,
  0x6e, 0x74, 0x69, 0x61, 0x6c, 0x2f, 0x63, 0x6f, 0x6e, 0x76, 0x31, 0x64,
  0x2f, 0x42, 0x69, 0x61, 0x73, 0x41, 0x64, 0x64, 0x3b, 0x73, 0x65, 0x71,
  0x75, 0x65, 0x6e, 0x74, 0x69, 0x61, 0x6c, 0x2f, 0x63, 0x6f, 0x6e, 0x76,
  0x31, 0x64, 0x2f, 0x43, 0x6f, 0x6e, 0x76, 0x31, 0x44, 0x2f, 0x53, 0x71,
  0x75, 0x65, 0x65, 0x7a, 0x65, 0x3b, 0x73, 0x65, 0x71, 0x75, 0x65, 0x6e,
  0x74, 0x69, 0x61, 0x6c, 0x2f, 0x63, 0x6f, 0x6e, 0x76, 0x31, 0x64, 0x2f,
  0x42, 0x69, 0x61, 0x73, 0x41, 0x64, 0x64, 0x2f, 0x52, 0x65, 0x61, 0x64,
  0x56, 0x61, 0x72, 0x69, 0x61, 0x62, 0x6c, 0x65, 0x4f, 0x70, 0x3b, 0x73,
  0x65, 0x71, 0x75, 0x65, 0x6e, 0x74, 0x69, 0x61, 0x6c, 0x2f, 0x63, 0x6f,
  0x6e, 0x76, 0x31, 0x64, 0x5f, 0x31, 0x2f, 0x43, 0x6f, 0x6e, 0x76, 0x31,
  0x44, 0x3b, 0x73, 0x65, 0x71, 0x75, 0x65, 0x6e, 0x74, 0x69, 0x61, 0x6c,
  0x2f, 0x63, 0x6f, 0x6e, 0x76, 0x31, 0x64, 0x2f, 0x43, 0x6f, 0x6e, 0x76,
  0x31, 0x44, 0x00, 0x00, 0x04, 0x00, 0x00, 0x00, 0x01, 0x00, 0x00, 0x00,
  0x01, 0x00, 0x00, 0x00, 0x2b, 0x00, 0x00, 0x00, 0x08, 0x00, 0x00, 0x00,
  0x76, 0xfc, 0xff, 0xff, 0x00, 0x00, 0x00, 0x01, 0x10, 0x00, 0x00, 0x00,
  0x10, 0x00, 0x00, 0x00, 0x0c, 0x00, 0x00, 0x00, 0x34, 0x00, 0x00, 0x00,
  0x60, 0xfc, 0xff, 0xff, 0x24, 0x00, 0x00, 0x00, 0x73, 0x65, 0x71, 0x75,
  0x65, 0x6e, 0x74, 0x69, 0x61, 0x6c, 0x2f, 0x63, 0x6f, 0x6e, 0x76, 0x31,
  0x64, 0x2f, 0x43, 0x6f, 0x6e, 0x76, 0x31, 0x44, 0x2f, 0x45, 0x78, 0x70,
  0x61, 0x6e, 0x64, 0x44, 0x69, 0x6d, 0x73, 0x31, 0x00, 0x00, 0x00, 0x00,
  0x04, 0x00, 0x00, 0x00, 0x01, 0x00, 0x00, 0x00, 0x01, 0x00, 0x00, 0x00,
  0x2d, 0x00, 0x00, 0x00, 0x09, 0x00, 0x00, 0x00, 0xd2, 0xfc, 0xff, 0xff,
  0x00, 0x00, 0x00, 0x01, 0x10, 0x00, 0x00, 0x00, 0x10, 0x00, 0x00, 0x00,
  0x0b, 0x00, 0x00, 0x00, 0x24, 0x00, 0x00, 0x00, 0xbc, 0xfc, 0xff, 0xff,
  0x17, 0x00, 0x00, 0x00, 0x73, 0x65, 0x71, 0x75, 0x65, 0x6e, 0x74, 0x69,
  0x61, 0x6c, 0x2f, 0x64, 0x65, 0x6e, 0x73, 0x65, 0x2f, 0x4d, 0x61, 0x74,
  0x4d, 0x75, 0x6c, 0x00, 0x02, 0x00, 0x00, 0x00, 0x09, 0x00, 0x00, 0x00,
  0x68, 0x00, 0x00, 0x00, 0x26, 0xfe, 0xff, 0xff, 0x00, 0x00, 0x00, 0x01,
  0x14, 0x00, 0x00, 0x00, 0x14, 0x00, 0x00, 0x00, 0x0a, 0x00, 0x00, 0x00,
  0x00, 0x00, 0x00, 0x02, 0x28, 0x00, 0x00, 0x00, 0x04, 0xfd, 0xff, 0xff,
  0x18, 0x00, 0x00, 0x00, 0x73, 0x65, 0x71, 0x75, 0x65, 0x6e, 0x74, 0x69,
  0x61, 0x6c, 0x2f, 0x66, 0x6c, 0x61, 0x74, 0x74, 0x65, 0x6e, 0x2f, 0x43,
  0x6f, 0x6e, 0x73, 0x74, 0x00, 0x00, 0x00, 0x00, 0x01, 0x00, 0x00, 0x00,
  0x02, 0x00, 0x00, 0x00, 0x6e, 0xfe, 0xff, 0xff, 0x00, 0x00, 0x00, 0x01,
  0x14, 0x00, 0x00, 0x00, 0x14, 0x00, 0x00, 0x00, 0x09, 0x00, 0x00, 0x00,
  0x00, 0x00, 0x00, 0x02, 0x30, 0x00, 0x00, 0x00, 0x4c, 0xfd, 0xff, 0xff,
  0x20, 0x00, 0x00, 0x00, 0x73, 0x65, 0x71, 0x75, 0x65, 0x6e, 0x74, 0x69,
  0x61, 0x6c, 0x2f, 0x72, 0x65, 0x73, 0x68, 0x61, 0x70, 0x65, 0x2f, 0x52,
  0x65, 0x73, 0x68, 0x61, 0x70, 0x65, 0x2f, 0x73, 0x68, 0x61, 0x70, 0x65,
  0x00, 0x00, 0x00, 0x00, 0x01, 0x00, 0x00, 0x00, 0x03, 0x00, 0x00, 0x00,
  0xae, 0xfd, 0xff, 0xff, 0x00, 0x00, 0x00, 0x01, 0x10, 0x00, 0x00, 0x00,
  0x10, 0x00, 0x00, 0x00, 0x08, 0x00, 0x00, 0x00, 0x34, 0x00, 0x00, 0x00,
  0x98, 0xfd, 0xff, 0xff, 0x27, 0x00, 0x00, 0x00, 0x73, 0x65, 0x71, 0x75,
  0x65, 0x6e, 0x74, 0x69, 0x61, 0x6c, 0x2f, 0x64, 0x65, 0x6e, 0x73, 0x65,
  0x2f, 0x42, 0x69, 0x61, 0x73, 0x41, 0x64, 0x64, 0x2f, 0x52, 0x65, 0x61,
  0x64, 0x56, 0x61, 0x72, 0x69, 0x61, 0x62, 0x6c, 0x65, 0x4f, 0x70, 0x00,
  0x01, 0x00, 0x00, 0x00, 0x09, 0x00, 0x00, 0x00, 0xfe, 0xfd, 0xff, 0xff,
  0x00, 0x00, 0x00, 0x01, 0x10, 0x00, 0x00, 0x00, 0x10, 0x00, 0x00, 0x00,
  0x07, 0x00, 0x00, 0x00, 0x28, 0x00, 0x00, 0x00, 0xe8, 0xfd, 0xff, 0xff,
  0x1a, 0x00, 0x00, 0x00, 0x73, 0x65, 0x71, 0x75, 0x65, 0x6e, 0x74, 0x69,
  0x61, 0x6c, 0x2f, 0x63, 0x6f, 0x6e, 0x76, 0x31, 0x64, 0x5f, 0x31, 0x2f,
  0x43, 0x6f, 0x6e, 0x76, 0x31, 0x44, 0x00, 0x00, 0x04, 0x00, 0x00, 0x00,
  0x08, 0x00, 0x00, 0x00, 0x01, 0x00, 0x00, 0x00, 0x03, 0x00, 0x00, 0x00,
  0x08, 0x00, 0x00, 0x00, 0x4e, 0xfe, 0xff, 0xff, 0x00, 0x00, 0x00, 0x01,
  0x10, 0x00, 0x00, 0x00, 0x10, 0x00, 0x00, 0x00, 0x06, 0x00, 0x00, 0x00,
  0x28, 0x00, 0x00, 0x00, 0x38, 0xfe, 0xff, 0xff, 0x18, 0x00, 0x00, 0x00,
  0x73, 0x65, 0x71, 0x75, 0x65, 0x6e, 0x74, 0x69, 0x61, 0x6c, 0x2f, 0x63,
  0x6f, 0x6e, 0x76, 0x31, 0x64, 0x2f, 0x43, 0x6f, 0x6e, 0x76, 0x31, 0x44,
  0x00, 0x00, 0x00, 0x00, 0x04, 0x00, 0x00, 0x00, 0x08, 0x00, 0x00, 0x00,
  0x01, 0x00, 0x00, 0x00, 0x03, 0x00, 0x00, 0x00, 0x09, 0x00, 0x00, 0x00,
  0xae, 0xff, 0xff, 0xff, 0x00, 0x00, 0x00, 0x01, 0x14, 0x00, 0x00, 0x00,
  0x14, 0x00, 0x00, 0x00, 0x05, 0x00, 0x00, 0x00, 0x00, 0x00, 0x00, 0x02,
  0x30, 0x00, 0x00, 0x00, 0x8c, 0xfe, 0xff, 0xff, 0x23, 0x00, 0x00, 0x00,
  0x73, 0x65, 0x71, 0x75, 0x65, 0x6e, 0x74, 0x69, 0x61, 0x6c, 0x2f, 0x6d,
  0x61, 0x78, 0x5f, 0x70, 0x6f, 0x6f, 0x6c, 0x69, 0x6e, 0x67, 0x31, 0x64,
  0x2f, 0x45, 0x78, 0x70, 0x61, 0x6e, 0x64, 0x44, 0x69, 0x6d, 0x73, 0x00,
  0x01, 0x00, 0x00, 0x00, 0x04, 0x00, 0x00, 0x00, 0x00, 0x00, 0x16, 0x00,
  0x1c, 0x00, 0x18, 0x00, 0x17, 0x00, 0x10, 0x00, 0x0c, 0x00, 0x08, 0x00,
  0x00, 0x00, 0x00, 0x00, 0x00, 0x00, 0x07, 0x00, 0x16, 0x00, 0x00, 0x00,
  0x00, 0x00, 0x00, 0x01, 0x14, 0x00, 0x00, 0x00, 0x14, 0x00, 0x00, 0x00,
  0x04, 0x00, 0x00, 0x00, 0x00, 0x00, 0x00, 0x02, 0x30, 0x00, 0x00, 0x00,
  0xf4, 0xfe, 0xff, 0xff, 0x23, 0x00, 0x00, 0x00, 0x73, 0x65, 0x71, 0x75,
  0x65, 0x6e, 0x74, 0x69, 0x61, 0x6c, 0x2f, 0x63, 0x6f, 0x6e, 0x76, 0x31,
  0x64, 0x2f, 0x43, 0x6f, 0x6e, 0x76, 0x31, 0x44, 0x2f, 0x45, 0x78, 0x70,
  0x61, 0x6e, 0x64, 0x44, 0x69, 0x6d, 0x73, 0x00, 0x01, 0x00, 0x00, 0x00,
  0x04, 0x00, 0x00, 0x00, 0x56, 0xff, 0xff, 0xff, 0x00, 0x00, 0x00, 0x01,
  0x10, 0x00, 0x00, 0x00, 0x10, 0x00, 0x00, 0x00, 0x03, 0x00, 0x00, 0x00,
  0x38, 0x00, 0x00, 0x00, 0x40, 0xff, 0xff, 0xff, 0x2a, 0x00, 0x00, 0x00,
  0x73, 0x65, 0x71, 0x75, 0x65, 0x6e, 0x74, 0x69, 0x61, 0x6c, 0x2f, 0x63,
  0x6f, 0x6e, 0x76, 0x31, 0x64, 0x5f, 0x31, 0x2f, 0x42, 0x69, 0x61, 0x73,
  0x41, 0x64, 0x64, 0x2f, 0x52, 0x65, 0x61, 0x64, 0x56, 0x61, 0x72, 0x69,
  0x61, 0x62, 0x6c, 0x65, 0x4f, 0x70, 0x00, 0x00, 0x01, 0x00, 0x00, 0x00,
  0x08, 0x00, 0x00, 0x00, 0xaa, 0xff, 0xff, 0xff, 0x00, 0x00, 0x00, 0x01,
  0x10, 0x00, 0x00, 0x00, 0x10, 0x00, 0x00, 0x00, 0x02, 0x00, 0x00, 0x00,
  0x38, 0x00, 0x00, 0x00, 0x94, 0xff, 0xff, 0xff, 0x28, 0x00, 0x00, 0x00,
  0x73, 0x65, 0x71, 0x75, 0x65, 0x6e, 0x74, 0x69, 0x61, 0x6c, 0x2f, 0x63,
  0x6f, 0x6e, 0x76, 0x31, 0x64, 0x2f, 0x42, 0x69, 0x61, 0x73, 0x41, 0x64,
  0x64, 0x2f, 0x52, 0x65, 0x61, 0x64, 0x56, 0x61, 0x72, 0x69, 0x61, 0x62,
  0x6c, 0x65, 0x4f, 0x70, 0x00, 0x00, 0x00, 0x00, 0x01, 0x00, 0x00, 0x00,
  0x08, 0x00, 0x00, 0x00, 0x00, 0x00, 0x16, 0x00, 0x18, 0x00, 0x14, 0x00,
  0x00, 0x00, 0x10, 0x00, 0x0c, 0x00, 0x08, 0x00, 0x00, 0x00, 0x00, 0x00,
  0x00, 0x00, 0x07, 0x00, 0x16, 0x00, 0x00, 0x00, 0x00, 0x00, 0x00, 0x01,
  0x14, 0x00, 0x00, 0x00, 0x14, 0x00, 0x00, 0x00, 0x01, 0x00, 0x00, 0x00,
  0x24, 0x00, 0x00, 0x00, 0x04, 0x00, 0x04, 0x00, 0x04, 0x00, 0x00, 0x00,
  0x13, 0x00, 0x00, 0x00, 0x73, 0x65, 0x72, 0x76, 0x69, 0x6e, 0x67, 0x5f,
  0x64, 0x65, 0x66, 0x61, 0x75, 0x6c, 0x74, 0x5f, 0x78, 0x3a, 0x30, 0x00,
  0x03, 0x00, 0x00, 0x00, 0x01, 0x00, 0x00, 0x00, 0x2d, 0x00, 0x00, 0x00,
  0x09, 0x00, 0x00, 0x00, 0x04, 0x00, 0x00, 0x00, 0x40, 0x00, 0x00, 0x00,
  0x24, 0x00, 0x00, 0x00, 0x14, 0x00, 0x00, 0x00, 0x04, 0x00, 0x00, 0x00,
  0xdc, 0xff, 0xff, 0xff, 0x09, 0x00, 0x00, 0x00, 0x00, 0x00, 0x00, 0x09,
  0xe8, 0xff, 0xff, 0xff, 0x11, 0x00, 0x00, 0x00, 0x00, 0x00, 0x00, 0x11,
  0xf4, 0xff, 0xff, 0xff, 0x03, 0x00, 0x00, 0x00, 0x00, 0x00, 0x00, 0x03,
  0x0c, 0x00, 0x0c, 0x00, 0x0b, 0x00, 0x00, 0x00, 0x00, 0x00, 0x04, 0x00,
  0x0c, 0x00, 0x00, 0x00, 0x16, 0x00, 0x00, 0x00, 0x00, 0x00, 0x00, 0x16
};
unsigned int _tf_models_1d_cnn_v1_1d_cnn_v1_tflite_len = 8772;

// Accelerometer X-axis
const float ACCX_MEAN = 9.235880f;    
const float ACCX_STD = 1.516386f;    

// Accelerometer Y-axis
const float ACCY_MEAN = -0.682526f;    
const float ACCY_STD = 3.083149f;      

// Accelerometer Z-axis
const float ACCZ_MEAN = 0.4874396f;    
const float ACCZ_STD = 0.234757f;      

// Gyroscope X-axis
const float GYROX_MEAN = 0.344743f;  
const float GYROX_STD = 28.02007f;    

// Gyroscope Y-axis
const float GYROY_MEAN = 0.666154f; 
const float GYROY_STD = 8.086139f;  

// Gyroscope Z-axis
const float GYROZ_MEAN = 0.011609f; 
const float GYROZ_STD = 26.38441f;      

// Magnetometer X-axis
const float MAGX_MEAN = -33.35714f;  
const float MAGX_STD = 5.843046f;    

// Magnetometer Y-axis
const float MAGY_MEAN = 19.60439f;  
const float MAGY_STD = 19.29037f;    

// Magnetometer Z-axis
const float MAGZ_MEAN = -2.507685f;  
const float MAGZ_STD = 31.47144f;
